32
57
0c
4b
28
2e
cc
39
ef
53
c4
45
c0
65
1b
d9
c5
33
c4
03
68
f7
09
cd
c4
02
54
b3
c2
54
5b
b2
17
4d
17
54
3a
c1
c2
bf
b8
f3
fe
dc
13
aa
a6
25
ed
e7
e3
fd
de
2d
33
0f
de
41
4d
db
e3
02
2f
1e
32
34
d7
e4
bd
c9
da
1a
02
df
34
f3
24
00
1f
16
64
42
29
1b
26
d0
26
d7
2b
36
c1
d8
09
98
a6
ed
ab
25
0a
de
dd
18
4e
de
25
e3
16
fc
2f
4f
2d
01
45
3b
42
06
f9
68
c4
3e
51
cb
2d
3a
cd
40
21
fd
df
2f
10
c7
ab
ef
06
2d
d5
dd
10
d2
47
2a
d0
0d
e8
da
2f
f4
d1
17
e7
26
28
54
2b
b5
03
e7
54
c2
00
cb
2e
3e
50
23
b1
46
38
06
ec
4a
ce
a8
b3
5b
e1
21
b3
1c
25
f3
2b
2c
d9
45
12
49
a5
08
cc
0b
ea
fa
f8
46
ad
48
0e
f5
b8
f3
a5
1b
3b
a4
bd
67
f2
48
16
0a
a2
e0
2f
f9
f8
a9
9b
af
51
1b
2e
6c
1f
da
34
44
c5
18
fa
45
40
bc
f9
4d
1d
2f
d4
b6
ce
1d
22
b4
1a
22
39
1f
45
4c
66
b9
f9
e3
fe
d4
35
c0
0e
d1
20
22
24
5e
50
cb
4a
47
07
ed
48
fb
a2
0d
04
f7
dd
46
34
12
07
3a
ce
d2
ed
69
29
23
59
e0
09
55
eb
a2
54
2c
b3
12
bd
ec
d9
b2
d6
68
12
2e
a4
cc
d3
55
ec
20
c5
1f
f1
c3
28
6e
5e
b6
24
34
dc
09
f7
e5
43
e0
b7
2c
88
c9
65
06
fc
21
d9
4e
db
4c
14
b9
b9
e4
e7
01
e4
c0
18
2c
34
16
dd
ff
eb
be
32
f1
36
07
2f
33
59
ca
f8
4a
c1
b7
49
df
4a
e3
3a
4a
22
aa
d9
4b
f5
11
d0
e5
b8
13
fc
dd
4f
fa
4a
3f
58
43
d3
62
50
f0
db
00
e5
d4
33
c7
48
49
b9
56
b8
3a
58
2a
4f
f9
2f
31
65
52
18
50
34
00
37
06
37
ba
d2
28
ba
01
f1
24
be
e7
c2
13
de
25
e9
27
09
0d
5c
35
40
f3
0e
df
37
2f
3d
28
17
e9
d8
b3
46
d8
a9
26
36
4e
c0
fe
0f
39
ec
c3
e2
e9
b1
36
b0
13
92
28
52
e9
3e
c5
fd
38
4f
ec
f1
aa
df
29
37
58
1b
61
00
f1
b9
26
01
0c
45
1d
04
b8
c0
fa
39
e3
44
22
09
f2
0c
15
46
1a
f3
1b
ed
f4
40
5d
0e
c8
42
d5
46
bd
4c
14
66
04
08
be
11
ed
37
37
23
de
4a
f3
4f
d7
c5
ea
c5
56
3b
4e
01
7f
62
f4
40
d6
f6
06
da
c8
be
43
2a
f8
3a
3e
d1
d7
f8
0a
e4
be
d0
cd
13
a7
f6
dc
43
b3
18
36
ab
d8
b0
c0
da
42
01
09
b4
f4
20
f7
b0
e8
28
c2
29
52
36
ce
d4
1a
aa
b1
d8
26
0d
12
ff
66
08
55
d1
48
d9
bb
0e
00
1e
ec
dd
2b
4f
73
23
f9
c6
eb
50
18
2a
2e
2a
b4
1a
22
de
c0
ee
41
1c
57
