f8
07
f8
f0
f6
0b
f0
05
d2
f1
ea
fa
f7
dc
ff
f0
06
0a
fd
f7
0f
14
f4
10
f4
0c
e6
0f
01
e7
fb
fe
e3
f2
ef
f2
fe
f0
02
08
e4
ef
f5
f5
f1
fe
f9
0c
d6
03
ff
d3
ef
f6
f0
09
c1
f0
e4
00
f5
c9
07
fb
29
ee
f2
1c
04
fc
0c
09
26
10
2f
0a
10
11
fb
fe
31
0a
03
2b
07
0b
0e
ef
4a
fe
2c
ed
ff
2e
05
fc
11
ee
f2
21
f5
fe
00
f0
47
07
29
03
0c
11
02
f5
0b
fa
ff
1c
05
fd
fd
f8
32
ff
14
fe
f8
0d
f9
07
3d
ff
f2
3b
f9
f1
08
f7
71
f4
4d
fd
fc
48
fd
f1
0c
f2
f3
22
06
f6
09
13
27
04
1e
11
10
0a
07
f8
30
fa
02
2f
fb
f7
fa
08
4b
f9
24
07
f7
1c
0a
fc
0d
ff
0b
f8
0d
0e
fa
0f
07
05
01
fd
0f
0b
ef
f1
ed
0e
fc
da
0e
fe
03
04
d4
09
d5
ff
00
e0
06
ff
70
f0
01
62
07
00
f0
fc
7f
ff
60
f5
f5
64
00
00
24
00
fd
1f
02
07
fb
fd
44
0d
26
f3
f6
27
03
f9
e7
f8
f8
d5
05
f4
f3
14
d8
0a
da
0c
0d
e6
f8
f2
eb
06
05
f5
f6
fe
01
06
e2
f2
e3
fd
f2
f0
0a
f3
fa
f1
f0
e9
0d
0f
ef
f7
f7
f0
f9
14
f6
fd
fe
11
e9
07
ff
ed
fa
f2
f2
fb
db
f3
f1
01
0e
f8
fa
fe
d6
f9
05
d0
08
04
fd
13
df
fe
c8
f5
06
cc
08
07
28
04
04
24
f3
10
03
f3
52
ff
32
10
0c
29
ee
f4
3c
ee
fa
2e
02
09
fe
fe
41
f1
31
04
08
2b
0c
f8
28
f3
f6
15
f4
fa
ed
f2
29
fe
15
01
10
0c
f2
fb
13
0f
0c
17
0e
08
f1
ff
23
f7
1f
01
0a
17
01
f4
53
fc
f7
40
f6
f7
f8
06
64
06
42
f8
f8
3a
0e
f0
17
fe
01
22
07
fe
f7
03
35
0c
1a
11
f3
15
04
05
31
0a
fc
33
fa
0c
fe
f4
4d
fe
1b
f0
0a
21
fb
f4
fe
f5
05
fb
fc
10
10
02
fc
f2
fa
fd
fd
0f
06
f9
d1
0b
fa
e1
06
12
fb
04
d9
fa
e5
10
01
da
09
f7
52
fd
f5
50
02
f1
01
f1
6d
10
6d
f8
f2
58
00
fb
24
04
fd
2a
fa
12
06
03
42
f6
2a
0e
07
15
02
0e
e7
f9
ee
e2
f9
08
fe
f7
cd
f2
e0
f9
ff
ed
fe
09
dd
fc
0f
e2
f8
06
f2
fe
ed
07
e6
04
09
fa
f0
f2
fc
ff
07
f5
f5
15
03
05
eb
0a
f2
11
fc
02
f0
00
ee
05
10
fb
11
06
09
10
e1
0f
f8
0b
f1
eb
f3
09
e2
0b
01
d9
f6
03
fc
fa
cb
06
d6
12
f3
d5
ef
ff
13
f5
0b
1b
ef
0b
05
f2
36
0d
1d
0b
01
2b
04
0d
3b
f2
04
23
05
11
f1
08
5b
f1
3c
f4
fd
35
f1
f4
10
f8
fb
1d
f5
f0
ff
08
42
f1
26
f3
f3
17
f0
0a
1c
05
01
1b
f4
08
04
f5
27
f9
03
00
07
06
ed
03
30
03
ff
45
f4
fa
f2
ff
74
08
4c
05
ef
32
ff
f4
09
0a
08
1e
f5
f5
f4
fc
24
0c
1d
01
0f
10
0a
f2
20
f7
01
2f
09
f4
f6
08
3e
ef
35
02
f1
22
08
f0
12
0f
f1
11
0d
09
fb
fa
03
0a
f4
02
fc
f5
02
f4
f0
09
02
d7
02
06
f7
06
c9
0d
d8
0f
fd
e6
09
f1
62
ee
10
5a
02
08
f3
fa
7d
0a
57
ff
fe
59
ef
f5
31
f0
f4
31
0f
02
f1
04
42
09
31
06
04
2e
06
07
d5
f4
fc
f1
f7
0a
fd
13
e9
07
de
f6
f4
e5
ee
10
f0
ef
0b
da
f8
00
0b
10
d9
0d
e2
05
0d
da
fa
07
e6
fc
fe
f3
0c
0c
02
06
ec
02
f5
07
0b
ed
07
11
ed
05
09
f2
0f
09
07
f1
f7
f7
09
f2
ef
02
f1
f1
e9
fc
f8
ed
0d
f8
f2
00
e6
0c
ee
11
0f
d6
ec
f4
29
05
fc
19
0e
fa
f8
03
32
03
0f
0e
01
17
02
05
24
fc
04
22
0e
fb
f9
0f
3b
f0
2c
ee
fb
2e
ee
ef
0f
0d
ef
18
f0
fa
fa
fb
2a
04
24
05
fa
22
f2
06
02
0d
f6
0e
f4
ff
f8
fc
0c
0a
03
fe
09
fe
05
fa
10
0a
03
15
0e
f2
fc
fb
07
f1
00
f3
0a
01
0a
f7
15
07
fb
11
08
09
f9
01
29
0c
08
f6
02
15
04
f1
11
01
fa
18
fb
fb
07
f9
31
fc
21
03
f3
17
ee
f6
f5
f1
02
ff
01
0c
04
0b
08
f7
fe
f6
03
04
f5
06
dc
0b
09
ef
fc
f7
f0
0e
d3
0d
f0
10
0b
e4
f2
06
66
07
f4
4b
04
f5
08
08
6f
f9
65
fe
f3
4c
f8
fa
2b
0e
f2
35
f4
09
08
07
3f
fa
1e
06
0c
26
f5
00
ea
f2
fc
d8
f8
13
ec
08
d7
fe
e3
fe
f1
de
0c
f5
fa
04
03
f5
f3
04
01
fe
d8
f4
e1
fb
11
f7
05
fd
fc
0b
f7
f9
10
13
03
f9
e4
01
ea
fd
fc
ed
f9
ff
01
0c
0c
05
fb
fc
fa
fe
e7
03
f8
f5
f4
0a
0e
10
e7
04
fe
ed
03
0e
ed
0c
d3
0c
f0
f7
0c
ee
09
04
2d
f2
0f
22
0d
04
f4
f8
2b
ff
32
00
06
19
f1
09
15
0e
10
0d
f4
0d
f4
0f
35
f0
17
06
f3
2d
f5
08
1a
00
f5
13
ef
f7
fe
f7
21
f0
12
f3
0c
14
00
f9
06
00
f8
15
f3
f3
ee
f8
04
f1
0e
06
fd
18
f9
f0
ef
ef
f8
01
0c
f0
ed
0f
09
f8
06
fb
01
ed
01
0a
13
f2
ef
1a
f7
0e
f0
fc
20
09
15
0a
ef
14
f2
fa
1b
f1
fe
13
11
09
01
0e
27
03
2a
f3
10
15
09
f2
09
08
f6
05
04
0c
ff
f6
0f
0b
f1
0f
09
ff
f0
0f
d2
0f
04
f2
0c
0a
fa
0c
e1
f3
ee
02
fb
e0
0a
f0
4f
ff
fa
52
09
08
01
0a
59
f1
5c
f3
01
48
fd
06
2c
0a
f5
25
0f
f5
fb
08
39
f1
2d
0c
ff
12
05
f6
df
00
0f
de
f8
02
09
02
db
08
f2
0d
f9
eb
02
f9
f5
fc
f7
e5
09
00
ee
0d
e7
0e
dd
fa
00
f8
f3
0e
ea
fe
09
fa
07
fb
f4
ff
f4
03
fd
fe
f4
e7
f8
fd
09
09
ef
01
f1
f4
ec
f1
09
0b
0b
0c
f7
11
ef
0c
e5
fc
f0
e8
05
03
ee
02
f0
f3
e4
0c
11
db
f1
03
1d
ff
ef
14
0a
f8
09
f1
1c
0b
11
11
f4
1a
ed
f7
0f
f6
f8
0d
06
0e
fc
11
1e
05
19
f6
0e
18
f2
00
02
03
f1
05
01
00
fd
f8
1c
03
17
fb
0d
08
01
f1
0d
f9
f5
0e
0b
fd
ec
f8
1a
f5
09
f7
06
02
f2
f1
f6
02
f7
ec
02
ff
f8
f6
ff
02
f0
fa
0b
02
f1
04
16
f6
0b
02
f6
0c
ed
00
1d
f4
17
f8
02
15
f4
10
1d
f9
f3
1e
09
f3
f7
0e
10
0f
0c
f2
f2
19
07
10
f4
11
f3
f4
0a
f1
08
07
03
f1
fc
06
f9
f7
0f
f0
f4
0c
fb
f5
01
0b
02
0d
ed
0c
f6
06
fc
ef
f5
0f
26
00
04
37
04
0b
05
06
42
0b
2d
07
06
35
fa
fc
03
f1
05
0e
f7
f6
01
0d
1a
f0
17
07
05
0f
03
04
e0
f2
f0
e7
03
01
00
09
f7
0c
e1
09
0f
df
fb
0f
e7
ef
ff
e4
fa
f6
04
0c
dc
04
ff
11
fd
fa
fe
f2
ea
ee
f2
e6
fe
01
ff
02
f2
f5
f7
13
fc
e5
fa
fa
12
f0
09
f8
0b
09
f0
ff
14
09
01
fe
f1
03
ec
0d
f3
08
fd
f6
05
05
ed
0c
f9
f9
f5
f7
f8
ed
f8
f5
11
fa
0e
fc
09
fb
ff
f2
12
06
22
f4
fc
16
ee
10
f0
08
03
03
03
0b
f8
fc
ed
f6
10
f6
07
fd
ee
05
f9
fe
f5
fe
fa
08
f3
03
ff
f7
fc
02
f7
f2
fe
f2
0f
ee
0d
12
fc
0f
06
f8
02
00
f7
00
f8
0a
f6
ef
ea
01
fa
ea
09
fb
ff
02
ef
00
da
02
03
df
04
f0
10
0e
f7
11
03
02
f7
03
10
f1
10
08
f3
0e
fb
f9
01
ef
f6
00
fd
09
0d
fc
06
fa
f8
03
02
f5
f5
f5
0d
fb
10
f8
f8
f5
08
f3
fb
00
f7
f5
f5
01
f0
ff
f1
f5
f9
ef
f4
02
f4
0e
d8
fc
db
0f
fd
fa
03
f5
17
ef
0f
1d
10
fb
f3
10
32
f3
21
0b
f6
1b
ee
f5
f6
0a
f7
13
f0
f5
fc
07
f3
fb
07
05
06
f6
f1
ff
ff
05
0d
e3
f9
f6
fd
00
de
f6
e7
f4
02
e1
04
05
ec
fd
fc
01
fe
02
06
11
f6
f9
f1
12
f7
eb
04
f9
f8
fd
f7
eb
0a
00
0b
04
f2
06
f7
14
04
02
fe
f7
0b
f8
f5
0d
f3
07
03
f0
fd
f3
0c
10
06
07
f1
fd
fc
04
fa
ed
f5
fe
ef
09
f3
f1
08
10
0d
e9
f9
0f
05
02
ef
19
10
fb
0e
ff
0e
fc
20
02
02
1b
08
01
ea
0e
fd
f7
f0
0e
06
f4
e0
f3
fb
07
11
e6
0d
fd
0c
ef
ff
ef
f1
06
ec
03
f7
01
02
f8
fb
f9
05
0c
06
f3
0e
ee
f3
f3
06
04
02
f7
02
05
10
f6
0a
01
d1
01
0c
e3
f9
f7
f5
ff
dd
0a
d3
0c
05
de
0b
0b
fc
0b
f9
fd
09
f4
00
09
ec
01
f7
f3
0b
08
06
f5
f0
07
f4
ec
07
fd
f8
f8
e5
f5
fc
f1
03
f9
0a
03
ff
0e
ff
07
f3
09
08
09
01
f5
04
ff
06
12
03
fc
eb
ef
06
e8
04
01
f6
fe
dd
07
da
10
f9
fd
fe
02
07
fd
f1
08
02
f4
fb
12
04
03
fa
0e
fb
10
ff
0b
fa
09
00
04
f1
f5
ed
fd
e8
ee
fc
f1
04
f5
05
f0
ec
f2
f7
f9
f1
04
fd
12
f2
06
fe
03
0b
00
05
f0
f7
ef
f8
06
0d
05
02
04
ed
09
e7
09
0a
fd
03
0c
f8
06
f6
fb
f6
f8
09
04
e6
f8
e7
0f
fa
f8
02
07
0f
f6
f4
12
fa
ff
08
f5
18
09
15
f2
00
fd
f5
fa
f8
0e
10
fb
06
11
06
0b
18
ee
0a
ff
f4
10
ee
11
28
f9
ef
0e
0e
f5
04
fb
27
07
13
11
ff
0a
f4
03
dd
0f
08
dc
0c
0c
0e
ff
da
f3
fb
f8
04
f6
f9
f4
e3
f7
fc
e6
ef
0a
fc
ef
e0
ee
e9
00
f6
e6
0b
fe
ee
09
f8
f4
ef
f8
f9
f4
ff
0b
f8
09
08
e8
f8
f6
de
0f
0a
e7
f7
f3
f1
f5
e6
fa
d3
f7
f0
df
04
0c
fa
fc
fb
eb
f7
0b
0d
ff
03
04
ef
04
f3
ff
f0
fc
ef
f1
0c
f9
f6
02
0d
fb
e5
fa
e7
f5
08
f3
ed
11
0c
05
0e
0e
0f
0c
f8
f7
0c
07
01
f6
f7
ff
f7
fa
e5
f1
fc
e5
02
0b
f5
09
f8
05
f6
0b
f8
f7
01
f3
f5
06
0e
e7
f9
07
fc
f1
ec
f6
ed
00
03
e7
f8
07
f8
0f
f2
fb
05
08
0b
10
e1
0c
fe
08
10
e7
fc
f1
09
06
f3
f8
f4
0c
01
13
ed
f6
f0
13
ef
06
fa
0e
f7
f7
03
ee
01
04
fe
fa
07
01
ed
13
f8
f4
fb
f5
e8
fa
ef
ee
07
15
f5
10
e4
f5
ea
0a
03
f3
f2
0a
fc
07
01
fc
ff
10
f6
ff
0c
fb
16
05
f4
0f
07
00
04
0e
0c
16
07
0d
fa
f8
08
00
01
07
f7
0e
0c
f2
17
0e
f5
17
09
fa
06
0c
21
f9
0c
07
01
18
fe
03
f5
02
03
da
f0
0e
fe
fd
e3
02
e8
fe
f6
e9
0b
f1
ef
0e
ef
e4
0b
09
f5
f0
dd
f7
e1
ff
0e
f6
09
0d
f8
01
09
e7
ff
08
f4
f7
f9
f9
f9
03
10
04
fd
0f
ce
0f
f7
d0
0e
03
fc
fd
d1
02
e1
02
f7
d4
0c
08
e8
f6
fd
fb
f3
fb
ec
02
e9
01
ec
f6
f5
01
ef
f2
f9
09
f1
dd
fd
f9
f9
f4
e5
11
db
f5
f4
f2
04
0d
fa
0b
fb
fd
08
08
fc
10
f9
f8
0f
f3
0c
fc
f7
f5
01
f0
ee
e8
f0
fc
02
f4
f2
05
01
f7
f5
ec
f6
f1
dd
ef
04
f8
fe
02
04
0b
e9
f6
f0
03
f2
e5
f0
fc
f6
04
01
de
06
f6
f0
06
d9
f8
ef
04
f5
f6
fc
03
12
05
0c
fe
03
0a
04
fe
03
f5
14
fa
f6
0f
f5
f9
0d
0a
f8
04
0f
f6
07
03
0c
fd
0d
fd
ff
f8
0a
00
f8
ee
0a
04
f5
10
02
13
f9
fb
ec
15
f0
f2
04
f2
fb
f4
0f
f8
f3
f4
fc
ee
29
0c
0f
00
f6
18
ff
10
1b
fc
0a
26
fe
05
01
09
2c
ff
1a
fc
fd
1f
f4
f9
fc
ef
02
f8
f2
f3
01
0c
04
f2
fc
f6
09
f3
ef
f7
e0
04
f8
d1
f8
fa
fc
00
dc
00
f0
0c
04
e7
fc
fd
fa
f9
ff
d9
02
f2
fb
f9
ea
07
db
07
f7
f6
f1
f2
e7
0f
0e
e5
0c
09
0b
0d
f0
f6
fc
15
08
ec
0a
0a
d2
ef
fa
df
fd
01
fc
04
e6
01
e8
f7
07
d7
fc
f8
f8
f3
fa
f6
ef
fe
f4
07
f9
f3
e0
0a
03
f1
0a
f0
e9
f2
f4
d0
0d
08
06
f9
db
03
d2
06
03
e7
f7
fd
00
0f
0a
0f
0e
11
08
11
fb
f5
f1
0e
f5
ff
ff
02
00
f1
0b
07
04
02
00
03
f5
f2
07
0b
06
0c
00
10
e6
f3
f5
f6
00
fc
01
ff
d9
f8
e6
07
f7
d4
0c
09
ee
06
0e
e2
f2
fc
f5
fa
e9
f5
df
02
01
e9
f7
f2
15
f4
00
09
0a
f7
f8
15
21
07
0d
00
ff
fd
f3
f4
06
05
00
09
0d
fb
00
f7
02
f9
ff
04
fa
fe
f1
0b
f9
0c
0f
00
0b
05
03
f9
01
0c
ee
f5
ff
0c
01
f7
fc
0f
07
12
f3
fd
f2
f7
10
05
fb
03
0c
19
f3
f6
34
06
00
24
04
13
ed
04
42
00
38
11
01
37
f8
f5
16
06
0b
1c
0c
f7
00
fc
1d
0f
1a
ff
01
0a
fc
fa
d4
f1
f5
e4
01
f9
06
f9
cd
09
d3
08
07
df
0e
03
f2
08
02
ef
10
00
04
0b
ef
0c
f2
05
0b
db
0a
ef
e6
fb
fe
e8
f0
f3
08
fb
f1
fa
f4
01
03
f3
ed
0b
e5
01
08
dc
0e
f6
0e
ff
ce
0d
cf
0e
04
e9
ee
ff
fb
fa
f4
dd
02
0f
f4
f8
e8
f6
fc
fd
02
f0
fb
f8
d4
f3
01
ef
0a
07
fb
fc
dd
f6
d0
04
f3
de
f9
0d
0a
f7
fc
02
f1
f7
fe
f1
fe
f0
f8
0c
f9
ff
0a
f9
f3
f0
0f
02
04
f5
f5
00
00
f3
10
0c
05
02
f5
00
d4
f5
f2
f0
f6
fe
fe
0a
e8
fb
d8
fa
10
d1
fb
07
e4
fe
07
d9
0f
fc
fa
07
ce
f6
de
f4
fc
cd
05
fa
18
07
0e
06
fb
11
03
0e
26
f7
1c
0f
00
05
04
fb
18
f4
fd
16
fe
13
f8
05
05
0d
19
fd
09
15
f6
fe
08
05
00
ef
fd
f4
ee
07
f8
07
fb
01
fe
f4
09
f3
13
ee
fc
0b
10
f0
0c
0b
15
f9
fa
02
fb
f8
fb
0f
26
05
fa
43
f3
fd
0c
f7
43
0a
39
0a
0c
29
ec
0f
21
0a
08
24
06
fa
f6
f6
1d
07
13
02
01
13
f0
0f
ea
05
ef
db
0e
f4
03
fb
e1
fb
d1
f9
0f
de
f7
f9
e9
09
fb
e7
0e
f9
f0
08
d1
08
e7
08
fd
eb
f9
0e
ef
09
f6
f8
f5
11
f2
02
e9
f0
e4
06
04
de
fc
fc
e0
f0
fe
ce
f2
03
09
0a
e2
fc
d7
f1
ef
d5
f5
0f
f3
f1
08
dc
05
00
f4
0f
e7
07
df
0b
fc
f2
fb
ef
d4
07
0a
e8
04
0c
ef
fd
e9
fa
d3
05
0e
da
f9
fc
0e
0c
0a
0a
01
f6
f3
02
fa
06
0a
ff
0c
10
0b
10
12
0c
08
ff
f3
07
03
0e
12
fd
14
fb
03
00
f3
09
e8
0e
ff
e2
0e
f2
fc
04
e4
09
e9
f5
07
ea
f7
00
e9
ee
f6
e0
08
02
f0
f8
e4
00
e0
fe
0f
e6
fc
f7
26
01
f5
08
fc
12
f4
fa
23
03
0f
0f
06
08
06
0a
fc
07
07
10
f0
fb
fb
11
12
07
f8
fb
ff
06
09
03
f6
0c
05
f4
ee
10
ef
03
ee
fa
f4
fa
02
07
09
f0
05
f5
05
01
f6
05
04
06
22
05
0a
00
fa
04
ee
11
40
07
fc
32
f8
05
fc
f4
55
06
40
05
0a
4a
f0
f7
00
f1
ef
fe
01
fa
06
06
ff
08
0d
0c
0b
02
f8
01
ea
00
0b
d8
f5
ff
f2
06
dd
02
dc
ee
f4
ea
0c
fc
f5
0a
f4
e0
f5
09
fb
ef
d7
00
e9
03
02
f2
f9
09
ee
f4
f6
e3
f8
fd
fc
f5
d9
f3
ec
02
0b
ed
06
05
ec
04
03
e7
04
08
0b
f8
e6
f1
db
03
06
e8
04
06
f4
0d
00
e1
06
04
f6
ff
e3
05
f0
fa
01
f5
eb
f6
ec
03
f2
cc
fa
f6
08
00
cb
fa
e5
fa
f8
e6
f5
0f
0e
07
10
03
05
0a
01
f4
fa
f2
f6
0f
03
0f
fb
0b
13
0a
01
05
0e
0d
ff
fc
0f
fe
06
14
05
fe
02
f1
e4
fb
0c
e7
f4
fb
f4
06
d8
fd
cd
0b
f3
ce
f6
10
e0
0a
ff
da
f8
f8
02
04
d7
f2
e7
f7
09
e2
08
09
25
03
0d
15
0f
f7
07
fc
1a
f4
17
0f
03
1b
f8
02
fb
f9
f5
0b
0f
0e
f1
ff
fb
f2
fd
f7
f4
fc
01
f5
ff
fc
06
ef
02
0c
f7
f4
09
00
07
12
08
ee
03
05
17
01
05
10
08
06
07
0e
19
01
18
0a
10
08
fc
fc
4d
f9
f3
3d
09
f8
f4
fd
56
f0
45
ff
fa
56
06
06
11
0f
f2
10
03
fd
ef
0f
21
f2
17
fe
f6
fd
ed
11
e1
f4
f3
d4
f4
f4
0e
11
cc
0d
e0
eb
02
df
09
0b
f2
06
fe
d5
f5
00
01
01
d4
f7
df
00
10
ee
ef
04
e0
fd
0f
d5
fe
07
f3
ff
d6
01
f3
0f
04
ed
f4
f8
f8
05
fe
f3
04
f1
f9
f4
dc
02
df
10
ff
dc
fb
0e
e7
0a
fe
f5
f0
01
04
fc
e0
ee
f3
12
fa
da
05
fc
cc
fc
01
e7
03
07
08
f5
da
f6
e1
ed
02
e0
ed
11
fe
0b
08
0c
f1
00
0b
09
fb
fc
f6
fb
03
09
02
0a
08
f9
0e
14
03
f3
f6
0d
04
ff
09
11
11
0d
ec
0e
d3
f6
f7
d5
0a
06
09
f6
d0
08
de
f3
ef
e5
03
0e
e9
f1
f2
e2
04
03
04
fe
d2
f3
d6
08
fd
e3
f3
06
1e
02
08
1d
03
ff
ee
f9
45
f9
21
0f
0c
17
f2
f1
00
0e
0c
fd
fc
0c
ed
0a
10
0e
fc
f7
ef
0d
f2
f7
f1
ef
fe
f2
0c
01
f8
10
f4
fa
07
00
00
08
f4
0b
fd
09
06
13
f9
04
fb
ef
3e
f0
0e
08
0f
0a
07
f8
36
03
0c
30
f1
00
ed
0b
46
0e
36
14
f4
34
0a
ff
fd
08
0e
12
fe
fd
fa
12
23
f0
06
05
0a
03
f8
ff
e8
04
0f
e8
08
f0
0a
f2
f0
06
ee
0b
03
ef
fa
fe
e9
0a
0c
e2
fe
13
fc
08
e8
fb
dd
02
08
f1
fc
fa
e7
f5
0c
e3
0d
f8
08
02
d6
ff
d8
f3
07
e4
ff
f6
09
0e
f2
ff
fd
ff
07
f1
e6
f4
f5
0e
f3
f8
0a
fc
ef
07
fd
e4
10
f3
f2
f9
d7
09
d7
0a
0e
e9
f6
f4
d7
07
f6
d3
0a
05
f9
08
e0
f7
eb
fd
f0
f3
08
f4
f3
f5
10
00
0b
0b
f0
fc
01
0b
f9
fd
07
fe
fc
f8
1b
04
08
05
f7
01
fb
fc
1e
0c
ff
10
f0
08
06
06
cd
f7
f0
d0
f7
f0
fd
02
e6
f7
e2
f1
03
de
fe
05
ec
f8
f1
e9
08
00
0c
12
e0
05
dc
0d
00
e9
04
0c
2b
0c
0e
1b
fc
f4
0a
14
40
01
32
06
f5
14
f0
0c
09
fa
01
fa
0b
15
f1
01
03
0e
10
0d
03
00
02
0a
ea
ff
fd
f0
01
f9
07
02
df
fb
f8
fc
0b
f5
fa
f6
00
07
f2
1a
fa
fe
01
f4
1f
f2
16
fe
fc
14
fe
03
0a
ee
06
18
fa
10
ee
ff
35
0d
1c
0a
f1
25
fd
f8
15
0b
f8
00
0f
ff
0b
04
1e
f5
03
06
f6
00
07
03
ec
0f
f9
00
fc
fd
0a
fe
db
f7
00
06
00
e0
f9
09
fa
0c
f9
f4
fa
fa
05
0c
fa
0b
ee
f3
f7
f7
f7
0b
e6
f6
fa
e7
0d
03
fc
fc
e2
f6
e6
05
f3
f0
0b
06
f3
06
07
10
f4
fc
ee
f7
fb
0e
05
01
fd
0a
f4
fb
de
f1
0b
ea
fb
0d
f3
ff
d2
01
e9
ff
0f
ea
f5
00
ec
0b
00
fe
0d
0f
fd
f5
fa
08
f3
f6
fb
ec
f9
f5
0a
0e
00
09
f6
0d
0e
f2
fc
0f
06
09
f0
f5
07
ff
11
ee
00
04
04
0b
fa
fb
18
f6
1c
0d
05
0e
02
f4
e7
ff
f2
e8
f9
12
f9
0f
cf
0f
d6
0c
f4
d9
f5
f5
e8
09
fc
e9
f4
f9
ec
f3
e2
09
df
f1
0f
e6
ff
0e
10
fb
0b
19
f7
0a
f6
14
27
f0
14
14
f0
20
f1
f2
0a
0e
ef
15
fc
fe
05
04
01
09
0f
14
fd
f6
fd
f8
02
0f
f2
e2
0e
02
ee
fa
e4
f8
00
03
f6
03
ef
01
fd
fd
f0
02
f3
f5
0e
f8
0b
f7
f1
f6
fe
04
f0
00
f7
07
fe
f4
f1
00
f2
f4
1b
0b
0d
08
0d
02
0c
01
14
01
ef
0f
0f
fc
06
f2
14
f5
19
0e
f3
0b
06
f9
f2
04
0f
f1
00
0c
0c
ec
02
07
e6
07
fd
e8
00
ff
05
02
f2
f3
05
fe
02
f5
ff
f5
e6
10
0e
f4
ee
09
e4
fb
09
f4
f5
03
0b
15
f1
07
fc
10
fc
e8
0c
f6
fc
09
ff
fd
0c
07
05
01
0a
f8
f8
f6
f9
0c
fa
fe
e9
f0
07
f2
03
f3
f2
09
e0
0b
db
15
f5
e7
f9
f7
f2
ff
07
ec
07
f3
ee
05
f9
0a
f4
f8
10
fb
fa
06
fc
fd
fe
03
ef
07
00
f0
f0
fb
ff
f8
ff
05
0c
0f
01
fe
f0
0e
fc
f7
fd
12
14
fc
ff
00
02
16
f0
fa
ef
f8
0e
d5
0c
f8
0d
fb
f3
0f
e1
00
0a
d7
00
f8
e5
02
00
01
f1
f5
0b
fa
ee
f4
fa
0a
0d
e7
fd
fc
0c
0a
09
01
09
03
f6
14
0c
0e
11
fe
f3
f9
07
0c
11
f3
fc
f6
03
f4
ff
09
14
02
fa
13
09
fd
fd
0c
01
f1
03
e9
0e
06
fb
11
e6
05
ec
01
05
ef
f0
fc
f5
fb
fd
ed
10
0c
f4
00
04
08
00
03
f7
f7
03
fa
fa
f6
0c
03
f4
fc
09
08
fa
07
02
0d
ff
f3
10
04
12
fe
01
1b
f1
f5
00
09
29
07
0e
16
f0
fa
05
f7
ee
fa
ff
03
06
ef
0b
fb
ec
00
ea
f0
f4
ef
f2
07
f7
ef
fa
02
04
0d
00
f6
01
0c
f9
f7
05
f7
ed
f3
04
f7
f9
03
02
10
f3
0a
f9
0b
fb
0f
09
e7
0b
f0
0d
05
f3
13
10
ef
07
00
04
fd
f5
ef
04
fa
fb
f5
f4
fe
ee
02
0c
09
04
f6
fc
0b
f9
08
fa
ed
f2
f5
f2
f6
fc
0b
0e
0a
0d
01
f3
0b
fb
fc
f9
0a
0d
03
f5
f7
02
04
f1
02
04
f3
10
0e
0a
fc
fd
f5
0c
f0
0e
ff
04
0a
0b
0f
f4
f5
12
08
0e
07
ef
06
0a
f4
e5
fc
01
d2
fd
fd
02
fc
d7
fe
d4
0c
01
eb
fd
fd
fa
0a
0b
e9
f6
f7
07
fa
f5
07
ef
f4
fe
f1
0a
f7
07
f6
fd
03
ef
fa
f8
fa
fa
02
ec
fb
03
eb
0b
f8
09
0b
07
16
f0
f7
00
f6
0e
0e
fe
f4
08
03
fc
f4
f1
f6
00
06
03
00
00
ff
ef
02
fc
0c
fe
f8
fb
f9
02
fd
fc
03
f0
fe
0a
fc
08
0f
f9
12
05
01
fb
f0
e9
08
01
eb
0e
02
11
12
f9
f5
03
03
f2
e7
06
05
02
f5
02
f2
10
f3
fc
f4
07
f9
f3
0b
f9
0f
f6
04
ee
fe
0d
fe
05
02
0a
fd
f2
f8
09
f1
03
f0
f7
0e
f8
01
02
04
f3
03
0a
fb
04
f4
ff
fd
ff
ee
0a
10
f3
08
0d
0d
fc
f5
fb
f4
ed
fb
0b
f6
fb
0b
07
f1
0e
fa
f2
ff
0a
07
f9
05
18
07
fe
f7
01
05
ee
f4
ed
07
0e
ec
ff
fc
f6
fd
f9
fe
fb
f4
ff
fc
0d
08
0d
ef
0d
f3
02
f3
f6
f5
f3
f9
05
f4
0e
0c
ff
f8
f4
04
f2
f9
f6
03
fc
07
0d
f8
fc
08
0a
f3
f4
04
02
fc
07
0a
f7
05
fc
fa
0a
f5
0f
03
00
0d
0d
f5
f9
f2
f9
e3
05
0e
04
fa
f3
0f
ea
f6
fc
e5
05
fd
fb
fa
ee
01
02
0a
ff
11
04
09
0d
03
04
0d
fe
03
ef
f4
f8
fd
f0
15
09
11
f3
f0
06
fe
01
e6
f1
f0
01
ef
fa
fe
0a
f8
0a
14
fe
ef
09
fd
f5
f6
09
f9
0d
0e
f9
ff
fe
12
02
0b
ff
f5
f9
08
ff
0d
f9
0a
03
07
05
ed
f4
0c
f1
08
ff
fb
ff
f4
04
f3
f0
f9
fb
f5
fc
f8
fa
0e
f6
0e
08
03
ed
0c
ff
e7
fa
f9
f0
08
f4
fb
09
f4
fb
13
00
fb
ff
fc
fb
f1
f0
fe
ff
f3
0e
fe
00
f0
f1
eb
ec
08
02
08
10
ee
08
03
0a
fd
ee
fc
ff
f9
ef
01
09
03
f9
02
04
08
f2
f7
f9
f1
09
0b
08
08
f5
13
fe
f3
0c
11
03
fc
f8
fc
06
fd
fa
05
0f
fd
09
08
0e
0e
f4
f1
f7
f9
01
f9
f7
08
fe
fa
f5
0c
0b
00
06
f4
f4
03
06
04
0d
f3
fe
fb
01
04
00
f7
f0
00
08
01
fe
eb
06
0d
f8
f3
01
0c
0a
f6
f4
f7
f4
04
f0
fd
0e
f2
0b
05
01
f1
06
f0
03
0a
07
10
ee
03
0f
fe
06
0f
0c
02
ee
03
fd
f7
f1
01
04
ff
fb
f7
06
ef
f2
05
ef
f5
0d
0a
fe
09
08
f5
00
f6
f1
fa
f2
f9
fe
06
0e
f1
ec
07
e8
0a
04
e9
0f
f7
0f
f6
f4
f0
04
f5
f8
f5
f0
05
00
08
f6
04
0c
07
fb
03
fa
08
f3
0c
0a
10
ec
f1
f1
08
08
ff
0c
12
f4
fa
0b
00
fc
0f
10
f4
fa
f2
f3
07
0a
0f
f0
01
fe
fd
f1
fc
05
02
0a
0e
fe
fa
ef
fd
07
ef
f2
0b
08
12
08
07
f4
f9
02
fe
0b
f3
11
f7
f1
04
f9
05
0f
0c
20
fb
1b
fc
09
18
00
10
fd
fd
0b
ef
10
f0
f5
06
fc
00
fa
0a
f1
01
f4
f2
f7
fd
ef
11
0d
07
ee
0e
10
02
f8
f3
fa
0e
0a
fe
05
f9
f0
ff
f3
01
0c
04
ec
04
0f
11
f7
06
fa
0a
f1
03
0b
f1
10
ef
09
ef
fa
ff
0f
f3
f0
f9
f1
f2
0a
f2
07
0d
f8
0a
0b
fc
0a
f3
0c
03
f3
0d
f0
10
0c
f0
01
f3
f5
f1
03
06
ff
fa
f7
f5
f6
0b
05
0f
04
f0
05
05
0e
f8
04
03
02
fe
fe
fa
f7
f0
fb
f8
10
f1
09
fc
07
15
0a
0d
f6
fb
01
fb
f9
10
ee
f9
03
03
0b
e7
0a
fb
f2
06
fe
0c
ff
00
fa
fe
0c
0a
f9
0a
fb
fe
0a
fc
01
f2
04
03
fc
fc
01
0c
ed
09
ef
f4
08
f0
f7
f4
02
07
0a
0c
f2
06
02
fa
f2
fd
05
f1
ff
18
f0
f9
f7
fc
16
10
04
08
0e
fd
0a
03
f4
0d
0f
f7
fb
02
fd
15
fc
ff
04
01
fe
f8
fb
08
ee
0b
fe
f1
02
f1
05
07
f0
0d
f9
f7
f9
f8
07
00
ec
01
f3
f0
08
0e
fa
f9
07
f0
f1
09
f0
04
0e
09
08
0e
fe
fe
0f
fa
f6
07
0e
f5
03
14
f7
0b
0b
f3
13
02
ee
08
0a
fc
ed
ed
0d
ee
0e
f4
05
fc
ef
08
f2
f3
fc
fb
00
f3
f4
fb
08
0d
fb
f1
0a
f8
f1
ff
07
04
f3
f2
f0
09
fa
11
08
f3
fb
12
0c
09
fa
f2
08
04
06
20
10
fa
f0
0a
1a
f0
0d
f0
fd
10
fa
f5
09
f1
fc
fe
f4
13
f1
09
f5
fe
05
f6
01
05
ec
0e
f6
fd
f1
fe
f8
f7
fa
f0
f9
f0
0c
ec
f4
fd
fb
0c
f7
01
06
0f
fa
0d
fe
ff
f4
fa
09
06
0d
0f
08
f7
09
0c
ff
ff
fb
08
08
06
07
f0
12
0f
08
0d
f0
fe
e9
f1
0c
f6
f3
fe
fd
13
e9
05
f4
02
0f
02
f8
0f
f4
ef
f7
fc
04
f5
f6
fb
08
0b
0a
fb
f6
fb
01
fa
ef
f9
0e
fb
f5
fc
fb
10
f2
03
04
16
0e
eb
f4
06
00
f2
f7
15
f2
f7
f7
f9
03
0c
16
fb
f1
0f
ed
fc
f3
f8
fc
fb
f2
14
09
03
f8
fa
0e
fa
00
07
f9
02
0b
fc
01
00
06
0e
f4
f2
fb
00
06
0c
10
fa
f7
f6
e2
fc
11
eb
ef
12
f0
0f
ef
f2
e8
07
f4
ee
fa
05
e3
fe
0e
00
f3
11
f4
08
e0
fc
f5
09
fb
f1
fb
01
fa
02
f6
04
0d
ee
05
ef
0c
0f
13
06
f2
fb
fd
f7
fe
f6
f3
f7
fa
0d
0b
f1
06
f2
12
0c
f7
11
0b
01
12
f6
f6
07
01
fd
f9
09
01
00
fa
12
f4
11
ff
10
35
0d
07
22
09
f0
f1
ec
3a
01
32
f4
f0
2b
f6
ef
09
0b
f8
08
0e
fa
0b
0a
15
ef
03
12
fb
00
fc
f8
fb
f6
f7
0b
00
fd
f3
fc
0c
f9
fe
f2
0d
f7
06
06
f1
09
f0
07
06
07
f4
01
05
f5
07
01
ff
f3
07
fb
10
f8
02
01
0e
05
09
0c
10
ff
fb
00
f0
0f
0d
0c
06
ee
0d
fb
05
03
f7
f9
fd
f3
0a
02
0d
fe
f7
08
10
fd
08
14
05
02
f4
0b
1b
f7
01
02
00
01
fb
08
f3
0f
ff
e6
f1
0c
fd
fa
f5
03
f6
00
0b
f5
f7
01
03
ff
04
f1
04
03
0e
f4
f1
ee
0c
0a
10
fa
0d
f7
f8
01
0f
14
f6
0e
ee
f6
18
03
10
f4
02
f8
09
10
ef
f3
fd
f2
0d
0f
fc
f1
fd
09
f7
09
08
03
f3
0e
e8
fe
f9
e7
f3
09
f2
f7
01
0b
f5
01
f6
04
f3
0d
e7
10
ff
f4
fe
0a
f2
00
ef
fc
ed
f7
f8
f0
06
0a
0c
0e
f4
01
00
02
f6
fb
19
06
15
0e
f2
05
0d
0e
15
00
0f
13
0c
08
f1
08
18
0a
12
07
10
11
f4
01
fe
f3
f5
0d
02
0d
f9
fe
13
f9
11
f9
07
fd
f1
f5
20
0d
00
11
01
04
f0
f7
37
05
19
f9
ff
28
0b
03
0f
0f
06
18
0b
f1
0d
0c
13
08
19
fb
09
08
00
02
17
0f
0a
19
f5
f2
ee
01
1a
fd
14
f8
10
03
f0
03
fa
fb
f7
03
f3
f3
05
07
f7
f2
00
0d
0e
fa
f3
05
0e
0b
f9
04
04
14
ee
fa
08
01
14
01
00
fc
04
11
0f
f7
f8
10
0c
09
f4
02
09
f6
03
0a
fe
0d
03
08
19
f9
fb
01
f4
02
0a
f5
1e
f7
1f
f2
0c
fd
ee
ef
09
09
0d
f7
06
10
f1
fd
09
f9
03
01
10
ee
05
ef
ec
fd
ee
09
09
04
04
0c
04
07
eb
0b
0c
00
f6
f6
09
f4
04
0b
fb
09
f1
fd
18
fd
0e
12
f2
15
0b
09
f4
f8
ee
0f
f6
06
f7
06
fa
0a
02
fe
f3
0f
07
fe
0d
f5
f3
11
0c
01
f8
fc
16
01
01
fe
fc
09
ff
f5
ee
0e
f3
f1
fe
fe
08
f3
e9
f7
06
09
0f
ff
0f
00
12
f1
f0
01
0d
03
ee
0a
1e
fa
0e
f5
fb
11
07
0c
1b
0b
f2
18
0a
02
ed
f8
19
f8
1d
f6
00
02
fa
f7
0a
fe
f3
ff
f0
ff
07
05
1a
f7
fb
fc
fd
0d
f7
f4
f3
fc
f3
f7
0e
00
01
fb
01
10
ea
10
f1
e7
f4
06
0f
07
06
0e
fa
0a
fb
fd
0d
06
06
fd
f2
0c
ee
03
15
05
f4
03
07
09
f8
00
14
fb
1e
06
f6
00
06
f0
02
ff
0e
fe
fa
f1
09
f0
fc
01
11
f2
05
f7
07
09
fe
0d
03
01
0c
07
f5
08
f4
f9
f9
02
09
f4
f4
0c
0e
f1
02
fe
ff
fb
fc
fc
14
fc
1f
fb
0e
19
ee
03
16
04
f5
12
00
fd
fd
10
1f
f5
17
13
ff
0a
f4
f5
f3
09
f9
00
03
10
0a
15
fc
ee
10
f6
06
0e
f1
f0
fa
09
f9
01
04
00
07
f7
11
09
0a
10
09
f5
f2
f8
01
07
f1
f7
02
0b
0d
fd
02
02
13
11
f0
10
07
fd
00
f4
00
03
0e
eb
f8
f7
f7
0f
08
ee
fe
09
0b
00
f5
f5
fc
f8
f8
0b
f6
09
01
fa
04
05
fa
07
ec
f4
f4
fc
fb
03
08
f3
f8
10
f1
05
05
06
09
e3
f6
ff
0a
ff
ef
12
09
09
0e
0b
03
0c
08
f8
f4
fc
02
07
f7
00
fa
08
06
01
0c
06
fd
04
15
fe
fb
07
02
06
0a
0d
f0
15
0b
fd
f1
fe
07
f6
f5
fe
03
f7
fa
01
27
f1
04
30
05
f9
fb
08
1e
f7
32
0a
f0
28
f9
f7
0c
fe
f0
09
0b
02
fe
01
06
03
04
fb
09
01
f9
0b
13
fa
0f
fb
05
0c
03
08
14
f7
17
ff
f1
0a
0c
0a
0d
00
f8
02
0e
f5
fb
05
06
0c
04
09
02
07
ed
ff
fb
00
0a
f3
04
06
f5
f6
04
0e
03
10
0e
f4
f4
0c
f5
f0
f6
fa
fa
0e
ef
f6
fc
0b
fa
13
03
f5
0b
09
0b
09
fa
15
f9
0f
fc
00
04
0c
08
05
07
0f
f1
ff
02
06
f3
f7
05
f5
fc
00
fe
05
fa
12
0d
09
ec
04
01
07
fe
07
f3
ff
06
f5
f8
04
fb
11
0a
08
f8
fd
12
f2
06
00
0a
0e
fc
fd
05
0d
fb
fc
fd
11
fe
05
10
06
0c
f8
fb
0a
f5
0a
fb
f4
0d
0c
07
0a
f6
f6
08
06
f5
0e
04
10
f0
03
09
00
12
00
08
04
eb
f4
05
0a
f1
05
fe
12
03
fd
11
fe
fa
0e
00
0d
00
08
10
f2
fa
06
f7
02
f8
fc
18
f4
06
0c
0e
0d
ed
10
f2
08
06
03
f5
03
ff
fe
0b
fa
f9
0d
0d
01
f0
f1
f8
00
f7
14
03
11
07
03
06
f5
10
f9
f5
10
04
ff
39
fb
f6
1e
ef
f0
f3
fa
24
0c
1b
f5
fa
2b
0f
f2
0f
ef
f2
f3
f8
f3
ff
13
0c
06
11
f9
f2
09
ff
f6
fb
fd
f6
f9
0c
0f
04
f3
fa
fe
0c
02
f8
f4
ef
05
f4
06
ff
0c
f4
0a
06
fa
fa
0b
07
09
f2
0b
00
00
fc
08
ef
f7
fe
0b
f6
04
f7
00
04
08
0d
f8
fc
fb
01
fc
f2
0a
00
10
ff
09
03
07
fb
0f
0c
f5
ee
09
f8
fc
09
0c
00
fe
fc
fc
11
fa
0f
ff
0c
02
f8
01
f5
ee
f4
f8
f6
04
fd
f5
f8
09
f3
04
07
f1
ff
03
f6
fe
05
00
f3
02
0d
0e
f5
ff
10
06
03
0f
09
f2
02
01
fa
f8
08
06
f9
0c
f7
08
0a
12
06
f9
ee
f4
f3
f4
f9
fa
f0
08
03
ef
f1
f0
fb
0e
09
f1
04
0a
09
ee
09
fc
10
10
ee
12
f3
01
10
09
07
f3
01
f3
f5
10
00
f9
f6
f9
fe
12
13
08
06
12
f5
fb
f5
10
21
09
f8
26
0d
fa
f5
04
09
0c
1d
f5
f9
0b
f5
fa
02
f6
f2
fb
06
fd
0e
00
07
05
ee
08
f5
ec
ee
f0
04
09
fd
14
fc
f5
f4
fe
f5
fc
09
0e
00
13
01
f9
13
03
fc
04
0a
03
ff
f7
fe
f5
00
f2
fe
00
fc
07
fe
00
fd
0a
03
f5
ee
15
13
f7
f5
f4
02
05
05
08
0d
05
ff
05
f7
10
f5
06
1a
ef
18
05
0e
11
0c
04
fe
fc
04
fb
0d
f1
02
f2
08
01
fa
04
01
f6
f2
f8
f3
03
0a
ef
fe
f4
ee
f5
0e
0f
f4
00
f6
f6
fe
01
13
f6
0f
12
06
14
ee
07
01
f3
ff
03
03
f8
f9
05
05
f2
0e
09
f2
11
fd
02
1c
08
16
04
08
ff
06
05
04
0a
0d
f9
fd
f3
05
12
ff
09
06
00
f8
09
00
fd
13
04
0a
03
f2
f8
06
0d
06
08
00
16
f8
ff
ef
f2
fa
05
ef
00
02
04
ee
11
0c
fe
05
fe
ff
f9
f2
04
09
fb
02
ff
f4
ed
fd
02
03
03
f9
f5
fb
fb
05
08
0a
04
07
0d
f5
f7
f6
fd
10
ef
f5
ff
fb
0e
ed
01
0b
09
01
ef
08
14
f3
02
13
02
06
13
08
f1
f0
0f
f7
0b
fd
0d
0d
fb
05
09
f2
f6
f3
f2
0a
ea
f6
0a
09
fd
0b
f2
10
09
fa
f9
fb
f5
0d
f9
03
fc
f7
0c
14
f8
f4
f7
f2
04
fe
fc
0b
05
f7
10
0c
09
f0
f4
00
f5
f8
20
10
fc
fd
fd
f8
fe
1e
fb
05
08
10
fd
00
f0
0e
10
06
f6
08
00
13
0c
13
06
0b
0b
ec
f3
0c
02
09
10
fb
f4
02
fc
09
04
fc
0a
f4
0a
03
09
fe
f5
f2
02
0f
01
fb
0d
07
f2
05
f7
04
f7
0d
0c
08
ef
0b
f1
f9
0f
09
12
0f
09
fe
11
06
fe
f1
f4
fb
f2
05
03
0c
fc
0c
11
0b
02
05
f5
fe
e8
08
0d
fc
f3
09
ff
f3
f8
0d
0c
14
f2
fc
0c
00
02
04
f1
0e
03
ff
fb
02
04
fc
f7
fc
07
03
00
fb
fb
09
fd
13
09
f2
05
f0
fd
f0
02
13
08
fc
0a
f3
0b
ed
04
f7
ff
f8
f3
f1
10
f1
09
f4
02
0a
0b
0c
fa
ef
f6
03
08
0e
06
05
f3
01
0d
0c
0a
f8
0f
07
12
0d
f3
17
04
f9
05
06
13
f0
08
02
f4
06
ff
fa
0c
f7
0b
14
06
fc
15
03
0a
01
01
15
05
fe
07
08
0f
0d
f6
ef
01
f5
03
ff
02
03
08
fe
f0
fe
0f
08
ff
0e
f3
fa
f3
09
f1
f6
0d
00
04
06
0f
02
12
07
ef
fd
0a
0b
fc
04
f5
03
f8
f5
08
07
f9
11
f6
f5
09
fb
fc
f7
0c
0e
10
03
05
f9
07
fd
0b
fa
ff
f8
0a
fa
fd
07
f6
0d
f4
02
05
f4
07
fb
05
0d
fb
ef
f5
0b
f8
05
f3
fe
fb
07
0a
0d
0b
07
fe
fe
03
06
08
0b
f7
0f
0a
0c
fe
f6
fd
f7
10
fa
f8
f9
0f
fc
11
0a
f0
02
f0
08
0e
fb
fd
0d
08
0c
08
ff
f5
f9
f8
f4
0d
f3
f7
03
00
06
fc
06
f5
f6
f9
e9
f9
08
fe
02
f1
0a
06
f5
ff
fc
ff
08
fa
ff
ef
0d
f8
08
03
ec
f0
0b
02
03
0d
f7
ff
fe
fd
12
0a
03
15
0a
fe
08
06
fd
fc
0c
03
f0
0a
f2
f7
05
00
f8
01
f4
09
04
f1
f2
f0
f2
f3
0f
04
09
0d
f7
0a
ff
03
02
fb
ed
0c
0d
06
f3
f5
05
0a
05
02
fd
fc
11
fe
fe
fb
ee
06
0c
04
f0
ff
0f
14
f1
14
fd
05
13
f9
0e
0c
f3
0f
fb
ff
f7
02
ff
0f
f2
0d
f9
fb
01
16
f7
ee
f8
fd
00
01
f7
03
0c
05
f8
fb
fa
10
04
f0
fa
f5
0b
f6
ed
11
f1
e9
f1
0d
f0
f1
07
0d
fb
f3
f3
f0
f5
01
0b
fa
03
0b
03
fe
f5
06
fd
fd
0b
0d
0d
00
f0
04
fe
f5
0b
03
f0
fd
f1
10
f7
07
ff
06
f2
08
f0
0f
fb
07
0a
f5
f4
02
02
fd
02
f7
fd
0a
f9
fc
04
f6
ef
ff
08
fa
11
f1
03
10
0c
fa
f2
f5
f9
fa
fe
0c
f0
01
01
0f
07
0d
0b
f1
08
0d
08
fc
f5
fd
01
fc
14
09
0d
14
0d
14
01
14
02
06
09
fa
fd
fd
03
f9
fd
f7
f1
fb
08
07
f8
f4
07
ff
ed
fe
f2
f8
07
ff
f9
0e
f3
13
0b
12
06
07
f7
02
f6
14
0f
fd
08
f5
00
0b
fc
11
04
02
f6
0f
12
07
01
00
f5
07
ed
f7
fa
fe
0f
14
0e
0c
fc
ff
fe
ff
0b
fb
02
09
f1
05
fa
07
f5
0a
ef
02
fb
03
12
05
17
fe
00
f9
02
fa
fc
fd
f4
06
01
11
f7
0a
03
fa
09
f8
05
12
0c
f8
03
f2
02
05
ee
04
06
12
10
f9
07
f5
0e
f3
ed
f7
fd
fd
10
ff
0a
0f
0f
06
f7
03
01
f6
f5
f7
01
f7
eb
0c
fd
08
0c
f5
0e
f5
f4
01
f7
fb
f0
08
fb
07
09
09
11
0b
05
fc
f2
f7
09
0b
0b
08
10
0c
f1
0d
0b
0f
f7
09
06
0a
09
00
0e
0f
fc
0a
fb
ff
09
f3
06
0f
04
fd
f4
fd
0f
f3
10
ef
0f
ef
f5
01
f4
ef
11
fd
fc
f9
f8
0b
f7
02
fb
04
05
01
03
04
f2
03
eb
fa
09
ee
0a
01
00
f3
ec
0b
04
0d
f1
f3
0f
0b
0f
f8
fc
f5
09
0c
04
07
02
f5
f7
00
0a
f1
09
0e
15
f4
08
15
f9
f4
f9
04
ff
f9
fb
12
fa
fb
05
f9
e2
02
f6
f9
fd
f3
07
ff
f6
f1
fa
fa
0d
e1
09
08
fa
03
f0
f7
ef
0b
ef
ff
0b
fd
fe
08
08
09
ed
f4
04
f9
ee
10
fe
00
0a
0e
f7
f6
06
07
fa
fa
01
f8
07
f7
04
f7
0d
04
f8
0c
13
ef
f4
fe
f2
10
0d
0f
03
02
f8
0f
fb
f3
f5
fb
03
00
f8
fa
f8
0d
f6
fe
01
0c
fd
fd
fc
f4
07
f8
04
11
01
13
0d
05
03
0c
15
ef
00
fc
ee
f9
0e
f7
0a
00
15
11
02
f3
f7
09
f0
0f
02
05
f8
0d
07
fe
00
f2
0d
ff
0b
04
fc
f3
0e
f8
fa
02
fa
08
fc
ed
02
fb
02
0d
01
06
f3
0d
10
fe
fa
0a
f7
fc
ed
f5
fa
09
07
ea
f3
0b
f9
0a
0d
07
f9
11
f0
05
0b
fd
17
07
03
f6
0b
10
06
f4
fc
ef
00
f4
0d
fe
fc
eb
f9
fe
0a
f6
10
f8
00
06
11
f1
f8
fa
08
01
ec
fa
05
ee
15
fe
01
fb
02
08
f4
08
f0
f2
06
f3
fc
00
fe
f9
09
0c
f1
f5
0b
01
f5
0f
05
02
f1
0c
04
0f
ff
ff
10
f7
09
09
0c
0f
f5
ef
0e
f9
f1
05
f7
11
ff
f5
f8
0d
f5
02
0a
fa
f3
ff
f9
f9
03
fe
fb
03
ed
f6
e8
fb
f0
f0
05
fb
f3
f4
09
0f
ee
0d
00
f7
07
04
f0
f3
fe
00
0b
00
06
0e
07
fa
04
f7
03
fc
14
ff
11
11
f6
05
ee
01
f6
fa
fc
0a
f4
0a
fe
fd
0c
07
f4
f9
f7
0d
f7
fd
0e
0c
0d
fd
f6
08
0c
15
fa
00
16
01
0b
00
0d
f3
fb
fc
00
fe
0f
fa
fb
fb
f7
f2
f7
08
ff
02
f7
0b
fe
06
03
11
fa
f8
fa
00
1e
05
11
fe
0f
04
08
fb
05
09
03
f7
f1
fe
fd
04
05
f9
01
ff
f3
f6
f7
fa
0c
0c
0c
0f
09
f5
f6
fb
f4
08
0e
f7
00
0b
04
11
01
f4
00
13
0b
f8
05
e8
f7
f2
f5
f2
0a
0a
00
0e
fa
fc
fd
0b
0d
f7
04
f8
09
fb
04
fb
ff
00
fe
08
13
09
f5
02
f7
f1
05
eb
fe
fb
fa
ed
0a
03
06
02
0c
0e
fd
00
0d
fe
09
f9
13
05
0b
0f
ff
04
f7
f0
ff
fe
0e
00
f0
07
04
07
f6
f2
10
e9
f8
f3
04
f8
08
0c
f7
f6
01
f1
00
0f
0d
f9
f9
01
00
f9
06
f4
f6
0a
f6
f3
f3
0f
05
01
fc
f9
12
0b
f3
08
f3
f6
0d
ff
0c
07
0b
ff
06
f3
08
f7
19
f8
fa
29
0a
0d
05
fb
fc
04
f7
f7
f6
0b
f4
00
f2
10
00
0c
ef
f8
0e
fb
02
06
05
0e
04
02
10
f9
f5
fc
f9
00
08
f3
01
07
ff
03
0f
0e
f0
fc
f4
06
0e
00
07
07
09
05
ee
0f
ee
08
f6
10
f6
14
f1
f0
f2
03
0f
ee
03
0c
fe
09
fe
f7
f5
04
08
fe
f9
0c
fa
03
04
0c
f5
fb
f1
09
05
0d
fd
00
f3
05
fd
10
ef
fa
ef
0b
ff
07
0a
08
ff
0f
0c
f1
0e
08
fb
05
12
02
f1
f6
02
11
11
06
ee
11
07
09
07
f9
0c
f7
10
00
fd
13
0b
08
0e
f7
0a
01
f9
f7
03
e6
fa
fa
11
fa
04
fa
f3
f2
fd
f3
01
05
f4
07
07
fb
01
0a
07
01
f1
09
fa
00
01
0f
02
fc
fe
f2
0a
02
f7
0c
06
f1
fb
f3
ee
02
f5
0c
0d
f3
02
0a
ee
0a
11
07
fe
fd
f5
f9
f5
fb
0c
f6
08
09
0b
ef
00
f9
0b
01
10
f4
fa
0a
f1
00
02
f6
0d
ff
06
03
0f
f7
04
f5
00
f2
0f
f9
f7
0e
f4
ee
08
f9
fc
04
fa
12
08
fa
09
f4
0b
fc
f6
0b
02
0a
f5
16
00
01
00
00
10
f9
fb
f0
09
08
0f
0f
08
08
09
f7
f0
f1
09
e7
10
06
f9
05
f3
f7
fa
0c
fd
f2
f4
0b
fd
f7
ef
10
0a
ef
ee
fb
f7
01
0d
02
11
06
09
f9
0f
05
fb
05
f8
f7
fd
11
f6
fd
04
f9
0f
f4
0a
0a
03
f9
fe
07
fe
f2
f5
fa
f0
01
0c
0a
fd
fb
06
08
01
00
f0
0e
0c
ff
0c
f3
00
ff
03
fc
f5
0e
07
ed
00
13
fb
fe
04
ef
03
08
f6
00
f2
0e
0b
0c
ef
f3
f6
08
04
07
f0
f8
ef
fc
11
10
0f
03
0c
f4
ef
fe
03
f5
ef
e7
fb
0c
f5
f2
00
09
08
f2
f5
fd
00
02
f2
f5
ee
06
00
08
fe
e9
0f
10
00
f8
f2
06
05
05
f4
0c
0d
f2
0f
f2
fb
f2
01
04
f7
f3
0f
0a
05
0d
10
fb
04
0d
07
10
fd
03
fc
00
fc
f3
fe
f2
fd
0f
0a
f4
04
03
0e
fc
05
09
fb
09
f2
f5
05
f3
09
0e
03
e8
0c
f7
06
f6
f8
f9
06
06
0a
f3
05
07
fb
0c
01
0c
fe
fc
03
fc
0d
0e
f2
00
f8
ef
f7
f6
0c
09
01
f7
03
0c
0e
f4
05
15
0b
ff
0b
f3
06
0a
f4
f3
fc
fe
ec
03
f3
0a
f4
ec
ff
0c
08
0e
08
0a
f1
f2
ef
ec
0d
f0
fa
fe
0e
f6
fd
0f
f7
f0
0a
01
f0
fa
00
0d
00
05
ee
02
ef
11
f8
fa
ff
0f
f9
f3
f5
fa
0d
fe
02
10
01
06
0b
13
fb
fd
f8
0e
fa
f0
0f
08
00
12
ef
05
0d
fd
01
13
ff
13
09
07
06
fe
08
ff
01
fb
0b
05
07
ef
f8
fc
f8
f2
08
f7
0a
00
10
f7
f2
06
0d
fb
fe
0e
05
05
02
fa
fc
05
fb
0a
0a
f8
f1
f2
0a
f1
f2
f1
fb
03
00
ed
f9
06
f4
0f
fe
05
02
f0
02
fa
04
02
f6
f9
08
05
f9
08
f6
0c
f2
0b
0a
fe
fc
ef
0e
03
fe
02
f8
10
f5
f9
0b
ff
f2
07
f7
ee
0c
ef
05
07
06
f7
f8
f8
08
03
3d
0f
01
2a
fb
0b
0a
f7
2b
06
1d
f0
f5
4b
0d
0f
14
f3
f1
05
fd
10
f0
f3
fa
f2
0c
f7
f5
fb
0c
fc
fd
04
04
fb
09
ec
ec
06
fa
f5
10
f7
f5
06
fb
0e
04
f6
0b
fd
0e
f8
0c
01
10
01
f2
f4
07
08
08
f0
f9
04
07
0a
fc
09
fc
0c
eb
02
0d
f8
0f
08
f7
04
f5
03
f5
0c
02
05
08
f4
00
08
09
fb
0a
0b
0b
f3
03
0d
03
0f
05
f0
f0
f2
0e
fb
08
f6
fa
03
ed
0b
12
05
ee
0d
04
fe
06
f5
01
0d
0d
0e
fb
f7
0c
05
fb
fc
fc
14
fe
01
f2
11
f6
0a
11
04
fc
10
f4
f3
07
f5
f9
13
02
f9
ef
0d
f5
f2
fc
f9
04
f5
0c
04
03
f6
03
fd
ff
f7
0e
00
02
07
f8
fb
ff
08
02
06
0f
f7
f2
0b
00
f5
ed
05
11
01
0a
03
04
03
fa
f4
0f
05
08
03
f8
ed
fe
01
09
06
fc
10
f8
ff
fa
f9
dc
f9
f7
e4
0a
08
01
06
e7
0e
f6
f8
f8
e2
09
ef
0c
f9
f8
07
f4
03
0b
fa
0b
0f
0d
f5
f4
0b
05
03
09
fe
ff
04
00
ee
ed
e8
09
fd
0f
0a
f4
f9
09
0c
f6
02
f7
0c
08
ee
11
03
fb
0a
08
10
09
fd
09
f9
0d
0e
0c
f4
fd
02
fe
0a
07
fe
0d
0b
f7
f4
ff
06
0d
f7
ff
f7
fc
f6
f9
e7
f9
ee
fd
00
04
f4
f2
ff
08
05
fc
09
03
f1
ff
0a
ff
02
f1
04
0e
f9
f1
f7
10
fa
04
10
0d
fc
04
04
0c
fc
0c
08
f8
02
f7
f4
04
ee
fc
06
08
e9
fa
ec
0d
0a
00
0b
11
09
09
f5
f9
07
10
0a
05
f0
03
04
08
ff
01
ef
01
f3
f3
11
fb
00
f4
02
10
11
ff
08
0e
f4
0c
12
fa
13
0c
f1
f9
fc
f1
05
09
fb
f0
f5
16
06
15
fb
04
f8
fc
0f
15
06
0d
ff
f6
f4
0d
13
fb
f8
ff
15
0a
00
ff
05
14
fc
0e
0c
08
10
0e
fa
13
f2
06
11
ff
0f
06
06
17
01
03
18
06
f5
ef
00
fe
fb
17
0c
05
fd
05
f3
05
0d
04
00
fe
fa
f7
fe
00
fe
fc
04
0b
f5
0a
07
10
07
f9
13
fc
05
06
03
1a
10
0f
f8
f4
17
0a
f8
f2
f8
09
f9
0e
f7
06
0c
ff
05
ed
f6
0a
ee
fa
f2
16
02
03
fa
fc
f8
f2
ee
fe
f0
0d
fa
0f
13
05
04
0f
f0
0e
05
08
03
fe
05
0a
0b
fa
09
f4
0c
ff
0b
06
05
06
fe
00
0e
fd
0f
03
0f
01
07
03
0e
f4
00
11
0a
03
14
f5
02
08
eb
ff
fe
17
0e
fe
04
fd
f9
fb
01
01
10
0d
06
11
07
07
07
04
f4
08
03
0e
f7
f8
03
03
03
fb
02
f0
f7
14
05
07
13
fb
08
08
f2
df
09
fb
e3
f6
ff
09
eb
f1
f9
e3
0b
03
e3
02
01
0d
09
fb
fd
01
09
fe
fa
ff
f4
fb
f5
f2
0c
fb
fd
fb
ee
0f
15
f3
f5
0b
f5
0f
ef
09
15
08
10
f7
0d
fe
f7
05
04
f7
0b
ef
fa
15
06
0f
fd
09
09
ee
07
02
f5
ef
17
06
f6
f8
01
15
07
04
fd
0e
09
0c
03
fe
0a
0e
09
06
0f
0d
0d
ff
0c
14
02
f7
f4
f8
0f
0b
07
0b
fa
fe
00
fe
05
1a
fd
00
0e
0f
16
f1
fb
df
f1
f3
e1
0f
00
05
0a
ec
08
f5
05
f7
db
f1
fc
02
0b
09
f2
02
10
0c
f8
09
06
01
fd
0a
f7
04
03
ef
02
02
f3
ef
f4
f4
fa
ee
f7
f8
09
fd
f3
07
0d
0d
fe
fd
10
ff
fe
fc
0d
fb
fc
12
f3
f4
fc
0b
04
fc
fe
0a
0b
f0
f5
f5
10
fb
0f
f4
fc
fc
f2
05
03
03
ef
f7
08
0b
03
04
f7
0c
02
f5
f9
08
0d
fa
06
ed
f1
08
ed
ff
06
0a
fb
f8
0e
00
15
06
08
fa
02
f8
0d
0e
f6
0e
05
ef
0a
0c
fb
fb
f4
0c
0c
fd
11
18
0b
fd
10
fc
f4
f2
0d
11
0e
10
11
fe
02
fd
f6
cf
f4
f8
f0
f2
0b
07
0f
eb
ff
ed
f7
0a
d1
f6
f1
11
05
09
0a
0c
fb
ef
0c
02
0a
f5
0e
fb
f5
0a
f3
00
f7
0b
02
f7
07
fe
f6
0f
f5
17
f8
0a
fd
02
07
0c
f6
fd
00
fa
02
f6
0c
1a
fd
0a
f8
0d
01
fe
0e
13
09
00
fc
04
12
0c
14
fb
04
18
13
ef
10
05
0f
f5
07
f4
f9
f4
f5
ec
f8
0c
fd
02
08
00
00
03
03
05
fb
fa
0e
f8
ee
f5
ec
08
f1
12
f5
fa
02
fe
01
f2
10
0a
e3
fb
06
f0
f2
f7
0b
de
f4
fa
e3
f4
fd
f4
03
08
08
0b
10
05
05
fd
01
03
f7
05
f3
0a
f3
f2
01
f7
e4
0f
14
fa
f7
e7
09
ee
0e
fc
02
0c
fd
f6
08
f3
0b
10
16
fb
f7
01
0f
03
f7
01
09
f5
0f
0c
ff
06
0a
f6
f8
04
12
09
03
02
12
04
01
f1
fe
01
f4
0a
07
fe
00
fe
05
fd
02
12
f7
fb
0e
09
0b
04
03
10
f6
f8
0f
fa
f5
fc
fe
f7
f7
f2
03
f9
0b
fc
10
01
fc
0d
0f
02
00
f3
fc
f2
01
fd
fe
f7
10
12
01
fc
10
fa
f9
f2
0a
fa
f1
fd
08
f7
0a
0d
0f
da
f7
ff
e7
fa
fa
09
11
e5
00
db
0a
05
da
fb
03
f1
f6
00
f9
0f
fb
f3
f7
0d
fe
04
f4
f9
06
02
03
11
f9
fd
0e
f4
f9
ed
ef
fb
0e
fc
09
04
14
0a
fd
09
0d
f2
f6
02
12
05
0f
0e
0a
0d
0e
ff
f5
f2
ff
01
03
f0
04
f3
07
08
f9
17
05
03
03
fc
0b
f6
f3
0a
fb
0c
f3
f8
03
0a
09
f7
f7
fe
01
0d
ff
0d
fa
f8
fe
0f
09
01
f6
09
f3
06
fb
11
08
f2
0d
f5
f1
df
0a
0e
e9
fd
fb
f6
fb
f9
0a
f3
f8
f7
ee
00
01
09
f5
00
03
f5
fe
fe
14
ec
06
f7
03
01
0c
0b
0e
fa
01
0c
ee
0e
03
04
f5
f3
07
fb
0f
ef
ec
fc
f1
06
06
fa
08
ee
0f
04
fe
07
06
fa
10
0b
fb
0d
10
0b
11
f3
ee
fd
00
ff
12
ee
00
f7
0c
0b
ed
03
f8
f9
03
fd
03
09
fe
00
fa
02
ef
00
f7
f1
09
f3
f0
fe
fa
11
f7
f7
0b
0b
00
fc
ff
ee
05
0b
f5
fe
0c
0d
fb
fd
02
0f
06
05
06
fc
f8
f8
01
f0
fd
f2
fe
fd
f8
f6
00
0f
f3
08
13
0c
f4
fd
fe
0d
fa
06
f1
e1
ff
f1
ed
0d
17
f4
0a
e5
07
df
0a
f3
e9
f9
09
fd
f0
0c
08
04
08
f8
0b
f5
f0
f7
0c
06
fc
ee
0f
00
fe
0b
f7
0a
01
fc
f8
0b
f3
fa
eb
06
0b
09
fe
00
ef
04
ff
f6
01
08
f5
0f
08
13
14
fa
fd
f7
f4
09
f0
0d
03
ee
0a
f4
f9
08
fb
f8
09
f6
fc
0d
10
0f
fc
0c
09
0a
fa
ec
f7
08
0d
06
06
fd
f4
ec
f2
07
09
0c
08
f1
02
ff
f7
00
f5
fe
f0
fd
05
f2
0f
e2
f1
f8
ec
02
04
10
f5
ea
fa
fd
fc
00
ea
f9
02
ff
0f
f6
f9
f4
08
05
01
ee
10
00
f8
09
0c
ff
f2
f1
07
f1
ed
03
f9
f0
00
f5
05
fe
06
f3
03
08
03
0e
03
f3
04
f4
0d
f0
11
10
09
f8
01
0c
fa
f5
f4
ff
fb
10
f7
fb
09
fb
07
f0
07
03
02
0d
f3
08
04
09
ee
0f
00
0f
0b
ee
08
0f
07
fa
14
f6
11
ec
fa
ec
0f
f4
ff
0d
fa
f1
fc
ee
10
04
fa
f4
08
fb
06
0d
ef
f5
00
fc
f6
11
05
f3
f0
f5
f6
04
01
0e
0c
f5
fc
00
11
f4
f1
f6
ff
03
0a
12
f1
00
fb
00
0d
e6
0b
fc
f3
f7
0f
fa
09
00
f8
ef
07
07
f7
fe
08
f0
02
07
f5
0a
fb
08
0a
0f
03
10
fc
f3
f5
fe
fc
f6
f7
00
12
0e
f6
f6
03
07
f2
06
f4
f1
0c
ed
10
08
fa
08
ff
03
0a
fa
f4
03
f0
11
13
f8
f4
f4
0f
0b
0a
fd
13
06
0a
03
0a
f8
fc
03
ff
f8
06
ee
f4
00
f3
fc
f4
f2
f2
09
f5
ee
f8
07
f1
ef
f4
fc
05
06
ff
f0
0e
f2
00
fa
ec
fd
0a
f7
e9
02
0f
f0
08
f7
ef
f0
ee
0b
ef
00
03
f5
fc
e4
f7
10
f6
ff
f2
ef
f3
fd
fe
ee
fc
0c
0f
fe
03
ef
0c
0b
fa
09
10
01
07
f3
f3
0a
0c
f4
fb
eb
f5
f8
f6
fd
06
f2
0d
fd
04
fc
00
05
07
08
12
f3
f9
12
fc
f2
07
fa
f7
fa
f5
f8
fb
fe
03
01
06
fd
04
0d
13
fa
fd
01
f8
0a
f5
0c
fb
ff
10
f7
0e
fe
f3
fe
0a
fe
08
05
f6
f0
02
fa
f0
fe
fd
f6
08
09
f4
f0
08
0f
fc
f8
f1
f9
0b
0f
04
fa
00
f9
11
f5
05
ff
04
01
01
f3
10
03
0c
fe
05
03
06
01
f6
0b
03
f9
f6
03
15
00
fd
fa
0d
f9
ef
09
10
06
18
e1
fe
ef
0b
fd
fa
0a
fe
f6
f3
ff
0a
07
02
03
06
0f
ef
0a
0a
f3
f0
0a
02
05
00
ee
02
f2
eb
0b
00
02
05
0a
f3
f0
f9
f8
00
f6
0b
ff
fb
08
0d
07
0a
fe
ee
15
fe
07
07
00
0c
f4
00
ee
fa
fc
fc
05
01
0b
ee
08
0b
03
14
06
f0
04
0c
04
0e
0b
ed
05
fd
0f
0a
f2
fb
fe
0c
07
08
14
0b
ef
12
0b
f7
0b
f5
00
fd
15
f8
f1
05
07
08
e0
08
07
ee
05
03
f7
ef
fc
ff
e4
00
08
e8
0b
08
f5
04
00
f0
f4
fe
0b
11
ed
07
ec
fa
f7
ed
08
f4
f7
f5
0c
f3
0e
14
02
13
fb
f6
03
16
f7
fe
06
fa
05
f3
ff
fa
f4
02
00
0b
07
fc
03
f6
f0
f8
f7
f3
0f
f9
f7
10
03
10
09
fc
fd
06
05
08
04
00
0b
f0
f7
f7
0d
fd
04
04
03
fc
f6
f5
fd
f6
05
12
fd
fd
fe
0c
05
f9
0f
f4
f4
03
08
f1
f6
0b
ef
f7
f2
fc
fc
0e
f6
fe
07
11
f9
0f
f8
03
f6
fc
f9
f1
05
fb
fe
f4
05
0e
0d
f5
0b
10
01
fa
f7
0b
fe
f4
f3
01
ea
0e
f6
e7
f8
07
f9
05
ef
05
df
f9
fa
f7
fb
06
04
fa
f5
0e
f2
15
0c
06
f0
f9
f3
0a
02
01
f3
f9
15
f5
0d
13
06
e7
f5
ec
04
02
0e
00
ff
0a
07
08
07
0e
f9
07
01
09
f1
07
17
ff
0e
f5
f8
0d
0a
02
0b
09
06
f9
09
09
06
15
09
08
f8
08
ff
03
00
fa
0c
08
f6
05
05
05
01
f4
11
fe
0a
03
f4
03
f1
0c
0e
03
09
04
03
fc
06
ff
fe
08
0d
09
07
0b
ed
f0
03
fd
0c
06
fe
08
fc
f0
01
fa
f9
07
f9
f5
f3
08
fa
01
0c
05
f8
08
f3
fe
f4
0f
03
f9
08
04
f1
f5
f6
02
ef
f2
f7
09
fd
0d
02
f8
05
01
f5
f9
0a
01
f5
0e
01
ff
0a
13
ff
02
0f
fc
08
fa
00
14
02
04
0d
01
07
04
05
02
00
0b
f0
f2
0a
12
11
05
f3
f8
fe
fe
02
0c
f1
0a
fe
00
02
0d
05
06
f8
0c
08
f6
f2
fb
0c
ff
0e
f8
02
0c
ee
fc
0a
05
ff
fa
f5
f3
ff
04
09
0c
00
05
fe
02
0b
f8
10
04
00
07
0d
0c
0a
f5
fe
fa
f8
0b
f9
fd
0e
09
06
f9
10
11
0c
f6
fd
10
f0
f4
0f
0f
f2
f8
03
00
03
fe
03
fd
fa
f7
02
f8
f4
f8
05
f4
04
06
f0
fa
fc
07
02
fa
f2
fb
ff
01
09
0d
0f
ea
f1
fe
0a
0f
0f
f4
ff
14
ee
08
07
08
f5
06
09
00
f0
03
0c
0d
08
08
11
f6
ee
f7
11
fb
f9
fa
0c
08
06
fc
04
f8
15
0a
fd
13
f1
f7
f5
f4
02
00
00
fb
07
07
fe
f9
06
04
0e
fd
07
ef
09
08
f1
10
06
ef
ef
f1
f8
ef
14
fa
f3
f4
ed
02
f5
0d
00
02
f7
f5
f5
09
05
03
fe
02
f8
0d
11
0f
f3
01
01
f4
06
f9
08
0a
09
fa
05
0e
0e
f4
04
08
e8
0d
f0
f8
0a
fd
f9
ff
e9
fc
fd
fe
09
fb
02
f5
11
0f
0b
0e
0c
11
fd
f5
09
0a
02
fc
09
0b
0c
ef
f1
01
fc
f5
f3
fe
fc
0d
02
00
ed
03
f1
fa
f9
08
09
f4
f2
fd
f4
15
f9
0b
10
fe
07
0a
fd
09
fc
00
ef
05
f2
01
09
0d
ef
fc
f3
f5
06
14
05
ff
fa
04
fe
0a
01
fc
0f
0b
00
0f
f6
02
fb
08
07
08
04
f3
11
f8
f9
0f
06
07
05
f3
04
f0
05
02
f3
ff
ef
fd
05
f3
06
f1
0d
09
f4
f9
f1
11
04
0e
0b
02
fd
ef
f4
f4
fd
ff
f3
11
fa
0b
f2
0f
f5
07
fc
0e
ec
02
00
f0
f7
fd
04
ef
07
f9
fc
04
0e
f3
fd
0d
f4
04
04
fb
f0
04
f7
0b
01
13
15
03
14
10
f5
00
ff
ff
0b
fa
04
14
fb
f4
ef
fa
04
f0
0e
13
0a
f5
f1
06
f7
f3
03
02
f7
05
f9
fb
08
04
fd
ef
11
13
f9
11
13
f6
f0
05
04
ea
0d
f2
0d
f7
f7
ef
fa
f5
04
f8
08
06
10
f9
f9
f0
f4
fb
f6
fe
f1
06
f1
05
0e
07
ff
09
0c
ed
fe
08
02
10
ee
f8
fb
fe
0a
fd
0d
06
f2
ff
0c
fe
0b
0c
f5
f5
f7
0a
f0
03
fc
04
f2
f5
fb
04
07
04
0d
f9
fb
0f
f7
0b
f7
0f
fd
0f
06
02
fe
01
0a
eb
08
11
f1
f7
02
fd
f8
17
01
f5
01
0c
00
06
fd
07
10
04
f2
11
01
08
fe
02
06
00
0d
f2
ff
f7
03
ed
fd
f9
08
15
f9
0d
ee
0b
fa
ee
f7
fe
04
fb
0c
0d
02
f1
0f
08
0a
f3
03
00
03
08
00
f5
fb
f4
08
13
f0
f6
07
10
ff
00
11
09
0c
f3
02
f7
f2
f0
10
f8
0c
f7
0f
14
fe
fb
e8
13
f3
e5
fb
06
f8
f0
f3
ee
0c
16
ee
08
f2
f0
f9
00
08
fd
ec
10
12
01
05
0a
03
ef
01
fd
09
f9
0c
03
09
02
f4
0a
14
f3
01
02
06
f3
03
f3
fb
0c
0d
08
f9
06
0c
0c
fa
0e
fa
fd
f4
05
f9
fc
f7
0c
0a
08
01
fb
ef
f3
f6
01
ee
0d
f2
0b
0c
05
f4
f9
10
f3
0b
f7
03
ef
f4
08
fd
06
fe
fb
fb
ea
12
ee
09
ec
0c
05
08
00
ed
04
f5
ef
0e
f9
07
00
f6
0f
f9
f9
02
f9
06
03
07
fa
ef
ed
f5
12
f0
0f
fd
0b
ed
f7
0a
f4
04
ff
04
0c
fa
f9
ef
f7
f0
03
ff
fe
f4
10
f7
04
f6
04
0f
fe
06
fa
f5
11
f3
04
f2
00
13
0a
0b
05
f0
0a
f5
07
fb
11
03
f6
ef
f6
03
03
fe
17
08
04
05
ff
f2
0b
0d
12
ef
0d
ec
0b
fa
01
12
12
0d
11
ed
f2
ee
05
01
04
f0
08
10
10
fe
fb
f5
ff
04
f4
03
0c
fd
f0
f7
0a
f1
00
f7
f8
0b
0f
0a
f3
f4
08
0d
08
fb
02
fb
08
f4
07
f9
03
02
06
0e
03
03
09
f6
0a
f5
06
0c
f3
ff
f7
f0
f7
fb
f0
00
10
f5
ff
06
f0
f7
fb
02
0a
f1
14
f1
f5
f7
02
f4
0c
fa
f2
ff
05
10
f4
0d
0c
ef
03
fa
ef
00
08
ff
05
f1
02
f5
04
11
06
f4
0e
ee
00
00
ff
16
01
10
0b
ef
07
01
06
00
f3
f8
08
f9
10
08
03
fe
0c
09
f7
fc
ff
fa
fe
10
0e
03
0b
09
03
ff
00
01
fa
08
f3
04
06
fb
0d
f5
fa
ff
04
03
fb
f2
fc
f7
02
f8
f2
f2
0d
f1
f9
ec
fd
f1
ec
01
fe
08
f7
f4
05
f7
00
f7
e9
05
0b
f8
10
f9
fb
fc
11
0a
fd
04
05
fa
0c
f8
f3
f6
f8
f3
fa
ff
eb
0f
0c
f5
02
04
0e
e8
fd
0e
05
08
f9
00
fb
fb
f3
0b
f7
02
0f
0b
fd
f4
ff
10
fa
f2
fe
0a
fd
0a
02
0c
fc
09
10
0c
f1
fc
13
f0
02
ef
f4
fb
01
f7
fb
f9
08
08
04
f9
06
f5
fc
03
fe
00
f4
03
00
0d
f5
0b
10
0c
13
f6
04
09
03
fb
ea
0d
06
f2
07
f4
f2
f9
06
06
fa
f9
03
0d
00
fa
0e
03
fe
f6
f0
f7
00
ef
0d
fb
11
fd
f6
01
ff
fd
fe
f1
fc
f9
fd
0f
f6
f0
0e
10
08
e5
09
fe
10
fc
f6
11
0e
f9
fa
0d
07
ee
f8
f5
08
06
ef
fb
f8
f3
09
ec
0d
fb
ee
f8
f5
07
ee
f9
f6
f9
ff
10
01
0a
05
f8
09
fe
09
0d
f7
ee
fb
07
01
17
f7
16
04
f8
07
f8
fc
01
0f
f5
16
f3
00
08
0b
01
fb
0e
fc
f2
f5
f8
0a
05
f5
ff
07
f1
03
0a
0d
f3
f1
00
f8
05
f6
0a
fb
f6
ff
07
fd
fe
ea
fd
03
fa
0a
16
fd
04
f6
fd
ff
f1
f3
0e
f1
f7
f9
f9
05
f3
0d
04
00
0c
f6
00
0e
0b
f6
f4
07
03
14
08
06
fc
04
0a
fe
07
0a
0f
05
f8
08
0a
ff
06
03
f5
06
00
0e
e8
f9
f5
e7
fb
f9
11
f1
fc
f5
f6
12
03
0e
0d
f8
f3
16
f9
fb
f7
0f
fa
05
fc
f6
fc
0a
ef
14
f5
fe
fe
00
11
f2
0a
02
fa
03
00
12
03
11
fb
08
01
09
07
0d
f7
00
0d
0e
f0
0e
07
fa
0f
ff
0e
0c
f1
f7
f4
15
0b
09
ff
0e
0d
fb
fb
08
f3
fd
05
0e
01
f5
10
07
02
f0
02
fe
13
01
f0
14
ef
ff
f6
0d
f7
f8
08
f8
0c
fc
0a
f0
f7
0e
10
df
09
0f
f8
02
ef
10
e9
fd
0d
f9
f9
0a
02
06
0a
f5
f4
15
0c
0e
f4
f9
f8
11
07
00
f3
fd
14
0b
fd
ff
fb
fd
02
07
0d
01
15
09
fe
00
0d
10
0c
f4
10
12
06
f4
0c
fd
13
09
12
14
07
02
fd
05
01
0d
fc
0a
f2
f5
0c
00
fc
0b
07
03
fd
00
f0
fc
08
f5
0d
f4
05
fd
ef
fc
f5
f0
05
f6
f7
fb
0b
03
10
0f
0e
13
fb
ef
09
f7
fe
f0
09
ed
f1
0d
ef
f8
e7
07
0e
f5
0e
02
f7
f7
03
01
04
f2
0e
f5
fa
02
ed
fa
01
00
ee
05
0d
f8
f2
ff
f9
fe
00
f8
f9
03
03
f9
04
f5
f6
fa
f4
01
f5
f9
eb
09
fa
e8
f1
f0
10
01
04
0c
f6
06
f9
fd
0d
f2
f7
f6
f3
06
01
0d
07
04
01
f4
ef
f9
09
0c
11
10
fb
03
0f
04
00
0e
f3
01
0d
0a
0b
0e
05
09
0b
fe
0d
11
10
0e
07
f1
0a
0e
f4
f4
ff
07
08
07
02
04
f8
10
f5
01
04
f1
f1
f5
0c
0b
f6
f6
0c
ff
f7
f3
07
ff
f8
0c
01
fe
08
f1
ee
fd
f7
0e
04
f5
fe
f4
12
f7
01
00
f0
0b
e8
0d
08
e8
07
0e
0f
0f
f3
10
e7
fb
f9
f9
10
0d
0a
ee
f7
f0
fc
fe
ee
13
0c
fd
0c
14
08
0b
f4
f4
10
08
08
ff
ef
f9
0b
02
14
09
fa
ec
00
fd
f7
00
05
02
f5
f8
06
fc
ff
02
17
03
01
04
07
0c
fa
f9
15
f6
f3
0f
ee
fc
f8
fe
0c
05
fb
11
09
06
ec
02
0d
03
07
09
06
fb
fc
ff
06
01
11
fd
fa
ff
03
01
f4
04
0a
0e
08
fe
05
04
fb
fd
fe
fa
02
03
07
00
f1
f1
10
0c
f5
f5
11
fc
06
06
f3
06
04
00
f2
06
f0
01
09
0c
fc
13
07
07
f9
f9
ee
10
f7
ed
f3
00
f2
f3
fa
02
fa
0f
fa
09
fc
0d
f6
f9
f4
e8
f8
fb
f4
f0
00
f9
0c
13
f6
14
06
0d
f3
08
f0
f4
0d
f6
ed
0b
f2
fc
fa
0a
f1
06
08
ff
f0
fb
08
fe
0e
f3
0a
ef
fc
08
ff
08
f8
12
11
03
09
05
0c
f3
f1
f7
09
09
10
00
f7
08
05
12
eb
f6
f2
14
07
f7
f2
0e
07
04
f9
08
06
07
03
08
00
fb
f9
03
fd
f3
0a
0c
11
f7
f6
13
05
f8
ee
f8
0c
f0
04
10
f6
0f
ec
07
ee
03
f6
df
fe
0a
f1
13
ee
0c
f8
0c
03
df
ff
08
f9
0e
f9
ed
ff
15
ed
06
00
fe
07
06
f6
04
ec
0b
11
05
f3
05
f3
f9
f4
ec
10
0c
15
f6
10
13
09
11
0c
fd
0c
11
f3
05
f7
08
0e
07
f5
fa
0e
02
f2
0d
f5
01
f6
02
0e
f8
01
ff
0b
ff
0e
10
f7
0e
f3
04
06
fa
fb
f7
f3
f8
08
f6
f1
f0
01
fa
f9
12
f9
fb
0f
f0
f4
04
04
fc
03
fc
0c
fd
06
f7
04
01
fc
fc
03
fe
03
f6
00
00
f5
f7
ea
0b
fc
01
f6
f0
fa
01
ed
03
06
fc
f2
f5
02
f5
f4
0f
07
fe
f9
fe
f1
03
f6
11
0b
ed
0a
fd
00
0e
f2
0f
01
0d
f1
ee
06
f6
00
fe
fb
0a
0c
15
fe
0a
00
ef
07
f6
fd
12
f3
ff
ef
ef
f0
fd
05
f7
10
fe
05
ff
01
0f
0b
fb
f1
08
03
f7
0f
02
fc
ff
fa
14
09
fc
f3
f5
ef
07
f1
01
f6
f8
fa
00
fc
03
f8
07
01
fa
01
12
f1
fa
fc
08
fa
10
10
0d
ff
02
04
0f
0d
fc
f9
11
03
f7
fd
01
f8
fe
00
f3
fe
01
0a
11
fe
fe
fb
07
fb
f6
f7
fd
f7
00
fc
fc
ef
0c
02
00
ed
00
f9
fe
01
e6
0e
04
fe
07
0e
ed
ee
f8
ef
09
f9
ee
09
06
f0
08
04
f4
07
f7
0e
fc
0b
ef
f8
f7
10
fc
03
ec
fc
11
f4
02
f6
08
0b
f4
f4
05
f2
fa
ff
f2
12
04
fc
f5
04
f4
09
f6
f8
04
ff
0b
ef
12
09
fe
05
fb
f0
fe
f5
f9
fa
00
f0
08
f9
00
f6
04
11
05
f9
ff
06
0e
03
f8
10
fb
03
fe
03
04
01
f7
06
fb
07
f8
0f
01
0b
f6
03
f9
0c
fc
06
01
0a
f6
00
f8
fe
0a
0d
f1
f7
01
f1
f4
00
ec
08
f9
f9
08
f8
01
f1
f7
f8
f5
f8
07
fb
f1
0e
f3
f2
fc
10
0d
f3
0b
e9
06
02
0a
f1
fd
06
f4
01
f4
06
f4
f3
06
01
ff
fd
0a
0d
09
03
0d
07
01
07
fd
f0
0f
00
0e
07
f8
f4
12
0e
ee
fb
06
11
05
0e
02
f9
0e
ec
10
02
02
ff
15
0b
12
09
f0
f0
fc
f0
0c
f6
07
f5
07
ed
04
00
0e
02
fb
f3
f2
06
fe
10
fd
01
03
f2
ff
fc
0a
09
0e
f8
f7
fc
02
fe
f3
f8
11
f1
fe
f0
07
05
ef
0d
f7
ff
0a
07
03
e3
f8
0e
e6
f5
f6
03
f6
f5
06
ee
ff
fa
eb
f5
f1
03
f8
fe
fc
fe
04
04
13
0d
04
ee
00
10
08
0b
f4
14
01
f8
03
fc
ee
0d
fd
0a
f5
fc
f2
0f
0f
fe
f7
07
f1
f8
fc
0b
fd
0c
01
f9
f6
f9
0c
fd
11
05
fb
f7
05
ef
08
ee
fe
fb
08
fa
0a
0c
04
05
ff
ec
0a
f2
f5
0e
10
03
05
07
f3
04
0b
fd
f4
11
f7
fe
fe
fe
0f
0f
11
0d
07
02
00
fa
ee
09
ec
fa
f1
f9
f6
e9
fe
0c
ec
02
08
f7
02
fd
06
fa
08
0f
ea
f6
0b
0b
f2
0c
f8
ff
0b
f0
00
07
0f
04
02
f8
07
0b
00
fe
0d
08
ed
09
fc
06
fc
02
01
f0
fe
08
f1
00
f2
10
f6
f6
f6
f3
fc
f1
03
05
05
f2
fc
f9
f5
03
f4
00
02
f8
0b
0f
0e
f7
06
01
0b
0e
06
fd
00
07
00
f6
f5
fe
10
fa
05
ff
0f
fe
f6
f4
07
f0
f8
07
f8
ee
09
06
f0
02
fe
f2
08
f0
f1
0a
0f
fe
f6
0f
f9
01
0d
f0
fc
f5
03
01
f0
fc
f2
0e
fa
f1
f5
fb
f5
15
f8
fa
0a
fd
f9
fa
f8
16
ef
f7
04
f6
07
f7
06
e4
01
f4
e2
05
00
f2
0d
e9
00
e9
f5
06
f6
0d
f2
04
f7
ff
02
0c
09
03
03
03
08
f0
0b
f3
0c
ed
fc
00
fa
0b
08
04
04
f6
07
0d
0c
fb
ed
ff
0a
f6
fa
12
f5
f8
07
01
fa
02
0e
0c
fd
ff
0a
0f
fd
ed
f7
0f
08
0b
11
f5
0f
03
12
03
01
fb
09
fc
07
f8
f0
01
f0
0e
f7
f6
05
f9
05
08
f5
0a
08
08
08
02
f3
f6
f5
07
0a
08
fd
f5
02
ff
00
fb
f4
03
fd
fb
f0
f4
05
04
f7
f8
03
06
03
01
0a
05
fa
f5
04
08
f4
fc
0d
fd
ef
fc
0f
fa
fd
f2
f4
09
04
07
f7
11
f4
01
fc
10
0b
05
f9
f6
0e
eb
f1
f8
14
fd
f1
fe
f8
0f
fe
00
01
0d
0f
ff
13
12
f8
0c
09
fd
f6
08
07
1f
0b
fd
0c
fc
00
ef
f8
21
fd
06
0c
0f
1a
f0
10
f7
f7
f6
ff
f2
07
0c
0b
0a
0d
f8
15
03
f3
08
f5
f7
f7
f6
f0
f0
fa
f8
07
f0
fb
08
08
ff
f1
f3
02
10
fe
0c
0e
0c
f1
01
f3
f3
0e
04
ff
f0
04
f5
10
11
ff
f7
05
f1
0b
f7
01
0f
0c
0f
08
f6
02
f1
f2
ef
f3
06
f4
05
16
04
f9
08
00
e7
0e
f6
ec
fc
06
f7
0c
0e
04
09
f6
02
ff
f2
fa
f5
0c
fa
02
f0
04
10
f9
f8
12
f9
f1
f4
f6
f6
f5
f8
f0
f8
03
f1
f0
03
06
f1
00
04
f8
f8
f8
f5
06
0c
0f
f2
0d
fc
0e
fe
fa
f0
f3
f1
f9
0c
0a
f8
fb
fc
f9
fd
f2
fb
10
04
02
f1
0d
f3
f4
f9
f4
00
f6
f6
0b
03
06
0b
05
fc
0f
0a
fa
0a
f2
03
ed
f8
0e
f5
f8
fc
03
09
f3
fc
fc
fe
fd
f8
0f
06
0e
0e
04
09
f7
07
ef
0b
f4
f2
ff
ff
f1
f2
04
f5
01
f9
07
f6
08
00
ed
f7
f6
f0
0c
f2
06
f3
12
0f
03
fc
f0
0a
04
f7
f8
08
f6
03
0c
f2
ff
07
f5
f6
0e
fc
f1
fd
04
f7
fe
f9
0a
03
00
f8
0d
07
fe
f3
19
1d
fd
1e
0e
ef
fd
f8
fc
fd
f0
f8
f0
f0
02
ee
08
f6
0a
11
14
fc
09
0c
03
f3
fb
fb
f7
09
14
04
04
0c
0c
0a
06
f4
ff
f5
05
0d
f0
08
01
f1
0a
f2
fa
fb
08
fd
04
fb
ef
07
0a
11
fc
0d
f5
0a
00
06
f7
14
0b
08
f8
f2
03
fd
0a
f6
ef
04
ef
f8
f8
fe
0a
0a
0e
0b
15
10
02
f7
00
f2
08
f3
f9
f9
02
01
0a
02
ef
0a
f9
06
f6
04
01
fc
fb
0f
fa
fa
06
fe
ed
05
f4
12
ff
fb
05
ec
fb
0e
01
f1
03
01
fc
fd
01
0d
f4
09
0e
f5
03
fe
01
04
fd
02
09
f6
f7
f0
00
0a
0e
03
ff
06
12
02
fe
f5
f3
f4
f8
07
06
04
06
0f
fe
fd
f4
ff
ff
0a
06
02
f5
01
06
07
f6
f0
f9
01
07
0c
fa
ff
fe
fa
03
0d
05
f7
02
01
f4
f1
fe
1b
f2
ff
ef
0a
0f
f0
fb
0b
09
09
ee
fe
10
f3
0a
f9
fd
0a
10
07
0a
f0
0b
fb
03
08
eb
0e
10
02
14
f7
ff
eb
fe
fc
f5
f7
09
00
fe
f4
06
0b
ff
f2
fc
12
ff
08
10
f4
ff
f8
09
04
f8
fb
04
07
0f
f4
f6
11
f5
0d
0b
f8
0a
f6
f6
0f
0e
ef
fb
f9
0f
f7
10
04
fe
11
0f
f0
01
fc
f4
09
fc
0d
03
0e
13
fd
08
f5
04
f5
ff
0d
f0
f7
fe
f1
0b
0a
0e
f0
f8
08
10
fc
10
fc
11
fc
fa
fe
f5
0e
f1
fc
01
f4
f3
fd
0f
ff
08
0e
09
01
f9
0b
0c
fd
f4
f0
f7
09
0b
fe
fd
fd
10
f2
17
0e
f3
0b
f2
06
f0
0c
f2
07
16
03
0d
fe
f1
ef
06
f2
00
fa
f7
03
f1
0c
f9
00
f1
02
fe
fc
05
f4
05
f5
07
08
05
ff
f3
fb
10
fd
04
05
13
01
00
f5
0a
0d
01
f1
f9
0f
0d
f5
ff
fa
0b
ef
ff
02
f9
f3
fd
0b
f3
00
0c
04
0c
0b
07
0c
0b
fb
fc
07
01
0f
0d
04
01
09
f7
f6
f3
0b
f7
04
0b
09
0a
09
08
10
0c
fb
f1
fe
f9
05
f1
f4
f5
fa
ec
fc
05
f8
f1
0f
0b
0e
0d
09
f7
02
f4
fc
07
f2
03
ee
0a
0c
f9
03
fc
00
f0
fb
f4
f4
04
0b
ea
fc
fe
fc
fb
04
f6
ee
f5
fa
f9
08
fd
ff
fc
0e
06
fd
06
ed
02
0b
f0
fa
14
f6
f7
f7
10
00
f6
0b
06
f6
f2
0a
06
0d
ff
16
08
0a
03
ff
0e
fa
fd
f5
fe
09
16
f6
fb
00
f7
0f
f9
fc
10
ed
0a
f4
fc
0a
05
ef
ff
f1
f7
fb
fe
09
14
f1
ed
0d
0d
f2
02
04
03
f6
11
03
03
0e
00
f9
03
0a
fc
f3
02
03
05
0b
03
f0
08
f7
08
12
05
f7
07
f0
04
09
f1
ef
fe
fd
f7
11
01
f5
0d
02
f6
f9
0b
09
ff
ff
fe
07
f6
07
f5
00
06
fb
fa
07
f5
f1
15
06
05
09
0c
02
06
0b
f2
fb
f8
00
f4
02
f2
f6
03
f0
10
f7
02
10
f8
fc
00
f0
0d
fb
04
f9
f8
fc
f2
0f
11
02
0c
00
05
fb
fa
06
07
08
09
0e
f1
05
fc
03
07
f4
08
f4
01
fa
0b
01
0c
f6
f8
f2
f4
05
0f
fb
00
fd
fb
f8
f8
02
ff
0f
0e
f3
f1
05
f3
ff
f3
f7
01
0e
02
07
fc
00
06
f6
0e
f6
f6
07
fc
fc
0e
fd
f0
07
08
f1
06
f5
01
f6
0f
02
09
0d
0e
08
fe
f9
ee
ed
0d
fb
04
f7
f8
fe
0f
f9
09
06
f5
fb
0c
f8
01
f1
f8
f3
f9
0d
0f
fb
12
fd
0e
0b
0f
08
09
0b
fc
ef
08
0d
07
0f
0f
09
10
02
09
0b
0c
06
00
09
f4
f1
fb
10
f1
04
0e
f2
0a
03
0e
01
0d
f9
f5
f2
05
f5
0f
0c
0f
05
03
0d
f4
ed
f6
f6
f8
fd
03
f8
f5
fa
f0
08
f1
10
0c
0c
05
0f
f3
fd
08
10
05
fa
0a
f8
f7
12
01
fb
fa
fd
03
ed
f7
fd
f8
0e
06
f6
fb
09
08
08
03
09
04
04
ff
05
13
ff
fc
fc
fc
06
01
fd
08
04
0f
fc
07
f1
fd
0b
0e
fe
05
ed
0b
f0
fa
0a
02
0e
f3
fc
10
07
fc
09
fa
fe
04
fa
0d
09
08
fb
f9
f3
04
0b
10
f9
ed
f7
04
f5
f3
ff
03
fb
13
ee
fd
08
f4
07
ff
f2
12
f6
07
fa
f5
10
04
0b
00
f0
03
f3
0b
f4
f4
10
f2
f5
0a
0f
fc
f4
f9
fb
0c
09
05
fb
f5
03
f7
03
0e
00
fd
06
ff
0c
f1
fe
06
f8
09
07
f7
07
fd
fe
04
fe
02
f9
0d
04
11
ff
04
f5
fb
02
0b
fd
fc
0a
fa
fa
08
f4
09
0d
0d
09
ff
08
f3
08
f3
f5
11
f2
06
f6
fb
0b
ef
fd
00
0e
04
06
03
fb
f6
fa
02
07
fa
05
fe
f6
0b
02
f6
0d
03
fc
f1
02
09
06
07
04
ec
06
06
00
fe
0f
f3
07
fd
ec
0b
05
0e
fd
11
0d
09
08
04
fe
f0
08
fb
fd
10
f6
00
fd
0e
05
f7
f6
16
06
02
06
f2
07
03
fe
f3
ff
ef
f6
fd
08
02
02
fd
fd
ff
f0
0a
0d
fc
11
05
fa
0b
0b
f7
f8
00
f4
fe
ef
f4
01
fa
f8
04
07
0c
ec
03
ea
04
fa
02
0c
00
fb
f8
03
ff
f0
fb
f7
03
fb
08
ed
fc
06
0d
06
16
f7
f5
0b
ff
00
0e
0f
f4
03
0c
fd
0b
0f
0f
0b
08
fa
ff
fc
0d
00
00
f7
0b
f9
08
f6
00
0f
0b
10
eb
08
fb
13
f9
12
ed
f1
fc
fe
fc
11
fe
0c
fe
f7
fb
07
fd
fb
0b
07
0a
f7
12
f5
f1
09
f5
04
0e
06
01
00
00
f3
04
f2
f0
f5
03
fe
ef
f0
03
f5
fa
01
03
fa
f5
05
fb
03
f0
0d
01
0a
05
fd
0b
ef
17
f0
ee
ee
0b
18
f4
18
10
10
0d
ee
10
0f
fe
08
fb
0f
03
fe
13
fd
ef
0a
04
ef
15
ef
f2
0a
fb
f7
0b
0b
0d
fe
fe
17
ff
11
fa
fb
fa
08
0a
00
09
f6
f6
f9
ff
fd
12
ff
ee
ef
f8
0b
f6
ec
fb
fb
f3
ff
06
03
fa
fb
f8
07
01
f8
0e
fd
08
04
09
f0
ef
03
fa
ef
00
ff
0a
0b
10
0b
f7
f3
02
ee
00
0e
f3
fd
0d
f6
15
f0
13
04
f6
04
fd
05
0c
f6
fd
fd
f2
06
f3
05
0b
0a
10
05
0d
0c
06
07
f9
10
04
0d
fc
f4
10
0b
00
02
fb
fb
ff
04
0b
07
fd
f0
ff
f5
f4
0a
07
f2
fe
0b
14
f1
f9
fe
10
f6
fe
07
0e
06
fa
f1
f3
09
15
0b
03
0d
f8
08
f4
f2
fc
09
00
fb
06
0a
f2
04
f6
f3
f3
f7
0a
08
ff
f8
11
f9
03
09
0e
f8
01
f4
fc
06
fe
fb
fd
fd
f5
fa
05
f6
fa
fe
f0
0e
0c
02
fe
f3
ff
f6
f2
04
f6
02
0f
ec
fb
0c
03
f3
fc
02
f9
09
f5
0c
10
01
fb
f8
f8
03
11
fe
04
fb
fd
05
f5
08
f2
fa
f5
06
0d
f5
f4
08
01
04
09
f5
f9
f6
06
09
f5
00
f2
15
06
fa
12
f6
04
05
0e
05
08
0e
0c
fb
fb
fe
f2
11
fe
07
fc
0d
fd
08
0a
f1
15
0d
fe
f3
f6
11
ef
f9
0f
ff
03
ff
08
0a
00
0d
03
0e
f8
02
f8
ff
fe
07
f5
0d
08
05
f1
fc
09
05
fe
f6
0a
f5
fa
16
ee
19
0b
fe
00
f0
09
09
f5
f9
0c
0c
0c
ff
02
09
ee
f8
0b
f2
11
fc
06
00
0d
f9
01
0e
05
ec
fd
07
fc
01
06
f6
fe
f4
fa
0f
00
0d
06
f4
0e
0d
08
0c
09
f0
04
00
0c
f6
fd
fb
f1
fd
0a
05
ef
03
00
fc
0b
f3
f7
f6
05
fd
0f
f6
04
0c
01
00
10
03
17
0a
ff
0c
07
02
fa
fb
04
13
00
fc
ff
ee
14
f3
10
04
f5
ff
12
f3
0f
0d
10
f6
f4
fc
08
f2
06
ff
fa
ee
f6
09
fd
06
fa
04
fe
01
f3
ee
04
f6
0a
f2
ff
10
0f
12
eb
f1
0f
0b
f1
f9
03
f8
11
fa
01
f3
00
10
f6
0f
02
07
0d
0b
0b
ec
fc
0a
e9
08
06
0e
0e
ea
09
f2
08
0b
f3
06
fe
01
f2
fc
f8
03
09
f6
f2
01
11
ef
f1
03
f8
05
0f
15
fd
f3
10
0d
f6
04
0e
04
f3
09
0d
fa
fd
ff
0d
0a
f8
0d
1c
fe
f9
f5
0e
18
ff
13
06
f9
0c
06
10
0a
00
fd
13
05
f6
fa
09
13
f7
15
07
06
17
07
fe
11
06
11
fd
fb
05
ff
f4
fd
ff
05
07
0b
ff
0c
10
06
07
f5
19
0c
f0
0b
ed
17
f5
17
fc
f0
08
09
00
12
f3
0e
fe
09
00
f4
09
18
fd
18
15
05
14
04
07
07
00
f0
17
f8
0c
00
14
09
03
02
fd
fb
0c
f4
0d
fe
08
fd
09
fa
fe
f2
f4
0a
08
f4
f8
10
02
ff
f2
f5
f1
0d
ff
ff
0a
f2
f4
0a
f1
0f
fe
07
10
fe
09
f2
0b
01
14
fa
05
07
fe
13
f7
0a
0d
06
0e
0a
08
1a
00
0f
18
09
15
f8
fd
1f
fb
0b
0d
fe
07
ff
f0
f4
00
ef
f9
f7
05
f7
f6
f1
f4
e9
0c
03
e8
02
06
f6
03
00
f8
f9
ef
07
f4
f1
0d
00
ec
f2
0c
08
f9
0c
f4
fb
fa
f6
10
0d
f6
06
09
f6
f7
0c
09
ed
0e
0b
f5
f0
f2
0d
07
05
f3
06
f2
f1
f1
00
08
01
10
de
0b
f2
fb
f0
04
0e
0f
e2
0d
f5
00
ef
f6
fb
f7
02
0f
00
f3
f7
f5
f0
ff
fc
0f
0b
f9
fe
ec
ed
f1
13
0a
fa
18
f2
ff
0b
0e
20
fc
1c
04
f1
11
00
09
fd
0c
f0
01
f5
02
02
0e
02
05
14
f6
f1
0a
01
ff
00
f6
f1
16
ef
f8
f3
f5
fe
0a
15
00
0e
f7
0a
05
08
03
0c
02
08
01
f6
f0
0b
f6
04
03
f4
fd
01
03
13
f2
f1
0d
f1
0e
0c
0e
14
0a
19
f6
fc
14
02
03
0f
0c
f0
0f
01
f5
07
09
0f
0c
1d
fa
fa
0d
07
03
0f
ff
01
0a
03
fe
0d
05
f3
07
11
0d
04
ff
00
f7
fa
0a
f7
0f
f3
0b
0a
0b
ff
04
0f
f7
06
f6
ee
f9
11
0c
06
0e
f3
fa
0d
f9
0f
0b
15
03
f3
13
03
0c
fc
f4
f9
fc
fb
0e
0a
03
21
ff
1e
14
f4
18
f9
f0
e7
f2
03
e4
f7
00
fc
f5
fc
f8
01
04
f3
e6
fe
03
f2
fe
02
0b
10
f8
06
ee
07
f6
f3
03
ef
0a
f9
09
00
08
f0
fc
f2
10
ff
09
15
f8
fe
05
0a
09
03
09
fc
0e
f2
f5
fa
f7
fd
f6
f3
0e
e3
f8
04
03
01
07
f7
07
fb
f7
0e
03
f1
fd
e1
0f
f6
01
04
f9
fb
fb
ee
f1
0e
05
10
08
00
09
f6
f7
f5
06
03
04
0a
0e
fb
fe
f2
13
0e
02
fe
0f
0d
f2
ff
fd
0b
16
f1
10
02
f3
ef
fc
fc
01
ed
fa
17
0d
04
04
fd
0d
f2
11
13
f7
0f
01
ee
13
f9
11
14
fb
0d
0a
f7
0e
fd
f1
0c
02
0b
12
f2
ee
fe
02
15
0a
14
0c
f5
fa
0b
00
19
00
f8
17
04
05
f1
08
10
f1
16
f8
f5
0c
f6
f3
fb
04
fb
00
0e
fc
ef
07
0d
0f
18
15
f2
ff
f5
08
08
ff
f6
f6
0d
00
0e
fc
fc
11
08
02
11
f2
02
00
02
07
0d
09
09
f5
0b
f5
06
0a
03
fa
f5
0a
fe
10
0e
08
f3
0c
f1
f8
09
fd
0d
0d
15
14
02
19
07
00
ff
03
0a
01
06
08
ff
01
10
f5
0e
02
0b
04
08
f6
ea
0f
f2
f4
02
ff
ee
06
eb
ef
fc
f6
07
e8
f1
08
0d
f3
f5
08
0d
0c
f8
fa
fa
fb
00
0c
08
f3
0c
0c
fb
07
f6
02
0e
10
04
f7
0f
0f
f4
15
0c
14
f5
06
f4
fe
00
f0
04
00
f9
fb
ff
0b
e9
ff
fd
e6
f6
fd
f1
07
0e
ed
f7
0b
09
09
e1
07
f7
10
ff
f8
fc
10
03
03
f4
04
fe
0d
0c
04
fa
10
ee
f7
fb
f4
fd
08
05
f4
0f
03
0e
08
f6
06
23
f3
1f
fb
f3
0e
0d
f8
12
0e
09
04
02
f8
04
f6
1d
03
1c
fb
10
18
fe
02
16
0b
f9
f8
f2
fe
0b
f9
0a
ff
16
fb
0b
18
fa
f7
15
0c
03
07
07
07
ff
05
27
fb
1f
fe
0c
08
09
0d
0a
f5
fe
12
01
00
05
06
0d
10
15
f5
01
0b
fd
09
13
09
f3
0b
f0
06
f1
fb
05
07
10
f6
f6
03
06
0e
07
01
f8
05
0f
f2
ff
09
08
f3
f2
09
fe
fb
0f
ef
06
fb
07
09
0b
fc
05
09
11
03
0f
f2
fa
fc
ef
fb
13
0e
f9
0d
ee
fc
f6
f8
04
06
07
05
ef
12
fc
0b
10
ee
f2
04
fe
05
ff
07
0c
f0
03
03
05
01
f8
f4
e7
f3
f2
ef
10
04
0a
f9
ef
0a
f8
f7
06
ef
f8
06
fa
01
f2
f4
f6
f8
f1
04
f8
f3
08
f9
05
f9
0d
10
fe
f9
0b
0d
0e
03
fe
07
00
03
fc
11
f3
12
03
fc
06
ef
07
fd
02
0d
0e
0d
ee
ef
e7
fc
0a
f3
08
fe
df
f3
f7
e6
f6
01
00
0e
f4
fe
ed
12
0b
ea
08
f0
fd
f9
0f
f1
fd
0c
0b
fb
ee
f5
f9
14
10
ee
06
0a
19
ff
0c
1f
02
f8
f8
f3
09
05
17
0b
fc
1c
fa
fb
15
f1
0a
19
03
f1
09
06
0c
0f
05
09
0c
0b
06
f1
06
04
fc
13
10
f1
ee
f6
19
ef
03
01
05
04
09
06
13
f7
02
0b
fa
f3
07
fb
23
f3
0e
fe
09
01
f3
f0
11
0b
01
1b
02
f0
fa
fb
05
ef
0f
0b
f8
fe
0d
04
03
04
f5
0b
0e
fb
0a
f0
1c
fd
ff
ef
f9
0c
ff
05
09
03
04
08
fd
0f
0e
f5
00
07
f5
0a
fb
f8
0d
f1
0b
0e
f2
04
0c
10
09
03
0a
10
01
0d
f1
0f
09
0b
16
0c
f1
1f
0d
f3
02
f3
1b
09
0b
f6
f4
0a
02
f4
11
07
f8
14
05
0b
f0
f3
06
06
19
00
0e
09
fc
f8
fe
07
04
f6
07
0b
0b
11
f7
f5
fa
f5
f4
fe
fd
06
0a
08
f8
00
01
f5
09
11
fe
f9
f7
08
f0
f5
0b
0c
01
04
fa
f7
f8
08
fa
00
fb
f1
12
09
07
f5
ec
02
eb
f5
fa
fe
0b
0d
ef
f7
00
f5
00
fa
ff
ea
f0
00
f4
fc
fb
dc
f0
15
07
16
f0
f9
e0
f5
f9
fc
02
08
03
f4
f0
fe
0c
08
0d
08
fb
0d
f3
08
10
e7
fd
fd
0c
f1
02
14
f1
ec
ed
ee
0c
0f
1b
0c
02
19
f3
ef
04
02
0b
0f
01
07
f0
f6
23
ff
04
04
01
09
ee
fe
13
f8
fd
0a
02
f5
f0
0d
1e
fd
18
f8
04
16
00
f1
1d
fa
0f
1d
05
08
09
08
12
f9
05
0d
01
ff
f7
fd
19
fe
f1
16
f3
fa
f6
f2
1c
f1
1a
fe
f4
04
f5
0d
0e
0f
00
13
fa
ed
0b
f8
0f
fc
03
05
f3
15
ff
0e
03
0a
f3
05
f1
f2
03
f1
f5
10
08
f2
02
11
01
07
09
0d
01
0b
08
f4
00
03
05
07
eb
f5
0f
0e
09
02
04
f3
fa
0f
f0
0a
f9
fc
12
0c
18
fb
f8
0b
f4
0f
01
04
0d
0d
05
09
f5
fc
27
f7
15
01
ff
08
fc
03
ed
0e
0a
fc
f4
0e
0d
0d
ec
05
ee
0a
0e
04
0c
f5
01
fd
ee
f7
06
02
f5
ff
03
fc
f6
fb
06
f8
f0
02
02
fb
f0
10
02
f5
ed
f6
18
f7
f7
10
ef
f9
f1
fb
f4
0a
0d
01
f5
f9
ff
04
03
0f
f6
f6
fa
08
fe
fa
f9
06
00
dd
0c
09
fd
13
f4
f2
de
ff
06
db
ed
fc
ec
f9
01
ef
f9
13
0e
13
f8
f8
e4
03
fc
f0
f9
09
09
08
f2
1a
f6
f5
07
ea
12
06
1a
f8
fe
1a
fe
ef
04
ff
0e
fb
0d
0a
0a
02
1c
0c
0d
08
0b
16
fa
f3
0a
ef
f7
1a
fb
09
fb
02
04
ee
fb
0f
ff
19
07
f0
11
f1
ee
24
0b
07
06
fb
2e
10
21
09
05
02
fc
03
0d
f2
06
10
f5
ef
08
11
12
f9
1d
08
0d
06
fd
fb
1e
ff
f2
1a
01
fe
04
fa
11
0a
10
00
f2
0b
ee
ef
f1
00
0f
04
f6
fd
f4
00
f4
10
11
fa
06
0e
02
fc
0e
fd
07
09
fa
f6
f8
f8
01
fb
0a
15
09
0a
f9
f5
05
ff
0d
03
09
f6
fb
f2
0b
03
12
0f
0e
20
fb
09
0d
0d
f3
0d
0d
f0
02
f2
0d
07
08
fd
09
10
ec
f3
e3
0e
f9
f5
09
00
f7
13
e1
f9
f1
01
06
fd
fe
05
